[PAD] 35000
[unused1] 34999
[unused2] 34998
[unused3] 34997
[unused4] 34996
[unused5] 34995
[unused6] 34994
[unused7] 34993
[unused8] 34992
[unused9] 34991
[unused10] 34990
[unused11] 34989
[unused12] 34988
[unused13] 34987
[unused14] 34986
[unused15] 34985
[unused16] 34984
[unused17] 34983
[unused18] 34982
[unused19] 34981
[unused20] 34980
[unused21] 34979
[unused22] 34978
[unused23] 34977
[unused24] 34976
[unused25] 34975
[unused26] 34974
[unused27] 34973
[unused28] 34972
[unused29] 34971
[unused30] 34970
[unused31] 34969
[unused32] 34968
[unused33] 34967
[unused34] 34966
[unused35] 34965
[unused36] 34964
[unused37] 34963
[unused38] 34962
[unused39] 34961
[unused40] 34960
[unused41] 34959
[unused42] 34958
[unused43] 34957
[unused44] 34956
[unused45] 34955
[unused46] 34954
[unused47] 34953
[unused48] 34952
[unused49] 34951
[unused50] 34950
[unused51] 34949
[unused52] 34948
[unused53] 34947
[unused54] 34946
[unused55] 34945
[unused56] 34944
[unused57] 34943
[unused58] 34942
[unused59] 34941
[unused60] 34940
[unused61] 34939
[unused62] 34938
[unused63] 34937
[unused64] 34936
[unused65] 34935
[unused66] 34934
[unused67] 34933
[unused68] 34932
[unused69] 34931
[unused70] 34930
[unused71] 34929
[unused72] 34928
[unused73] 34927
[unused74] 34926
[unused75] 34925
[unused76] 34924
[unused77] 34923
[unused78] 34922
[unused79] 34921
[unused80] 34920
[unused81] 34919
[unused82] 34918
[unused83] 34917
[unused84] 34916
[unused85] 34915
[unused86] 34914
[unused87] 34913
[unused88] 34912
[unused89] 34911
[unused90] 34910
[unused91] 34909
[unused92] 34908
[unused93] 34907
[unused94] 34906
[unused95] 34905
[unused96] 34904
[unused97] 34903
[unused98] 34902
[unused99] 34901
[UNK] 34900
[CLS] 34899
[SEP] 34898
[MASK] 34897
[unused100] 34896
[unused101] 34895
! 34894
" 34893
# 34892
$ 34891
% 34890
& 34889
' 34888
( 34887
) 34886
* 34885
+ 34884
, 34883
- 34882
. 34881
/ 34880
0 34879
1 34878
2 34877
3 34876
4 34875
5 34874
6 34873
7 34872
8 34871
9 34870
: 34869
; 34868
< 34867
= 34866
> 34865
? 34864
@ 34863
A 34862
B 34861
C 34860
D 34859
E 34858
F 34857
G 34856
H 34855
I 34854
J 34853
K 34852
L 34851
M 34850
N 34849
O 34848
P 34847
Q 34846
R 34845
S 34844
T 34843
U 34842
V 34841
W 34840
X 34839
Y 34838
Z 34837
[ 34836
\ 34835
] 34834
^ 34833
_ 34832
` 34831
a 34830
b 34829
c 34828
d 34827
e 34826
f 34825
g 34824
h 34823
i 34822
j 34821
k 34820
l 34819
m 34818
n 34817
o 34816
p 34815
q 34814
r 34813
s 34812
t 34811
u 34810
v 34809
w 34808
x 34807
y 34806
z 34805
{ 34804
| 34803
} 34802
~ 34801
¡ 34800
¢ 34799
£ 34798
¥ 34797
§ 34796
¨ 34795
© 34794
ª 34793
« 34792
¬ 34791
® 34790
° 34789
± 34788
² 34787
³ 34786
´ 34785
µ 34784
¶ 34783
· 34782
¹ 34781
º 34780
» 34779
¼ 34778
½ 34777
¾ 34776
¿ 34775
À 34774
Á 34773
Â 34772
Ä 34771
Å 34770
Æ 34769
Ç 34768
È 34767
É 34766
Í 34765
Î 34764
Ñ 34763
Ó 34762
Ö 34761
× 34760
Ø 34759
Ú 34758
Ü 34757
Þ 34756
ß 34755
à 34754
á 34753
â 34752
ã 34751
ä 34750
å 34749
æ 34748
ç 34747
è 34746
é 34745
ê 34744
ë 34743
ì 34742
í 34741
î 34740
ï 34739
ð 34738
ñ 34737
ò 34736
ó 34735
ô 34734
õ 34733
ö 34732
÷ 34731
ø 34730
ù 34729
ú 34728
û 34727
ü 34726
ý 34725
þ 34724
ÿ 34723
Ā 34722
ā 34721
ă 34720
ą 34719
Ć 34718
ć 34717
Č 34716
č 34715
ď 34714
Đ 34713
đ 34712
ē 34711
ė 34710
ę 34709
ě 34708
ğ 34707
ġ 34706
Ħ 34705
ħ 34704
ĩ 34703
Ī 34702
ī 34701
İ 34700
ı 34699
ļ 34698
Ľ 34697
ľ 34696
Ł 34695
ł 34694
ń 34693
ņ 34692
ň 34691
ŋ 34690
Ō 34689
ō 34688
ŏ 34687
ő 34686
Œ 34685
œ 34684
ř 34683
Ś 34682
ś 34681
Ş 34680
ş 34679
Š 34678
š 34677
Ţ 34676
ţ 34675
ť 34674
ũ 34673
ū 34672
ŭ 34671
ů 34670
ű 34669
ų 34668
ŵ 34667
ŷ 34666
ź 34665
Ż 34664
ż 34663
Ž 34662
ž 34661
Ə 34660
ƒ 34659
ơ 34658
ư 34657
ǎ 34656
ǐ 34655
ǒ 34654
ǔ 34653
ǫ 34652
Ș 34651
ș 34650
Ț 34649
ț 34648
ɐ 34647
ɑ 34646
ɔ 34645
ɕ 34644
ə 34643
ɛ 34642
ɡ 34641
ɣ 34640
ɨ 34639
ɪ 34638
ɲ 34637
ɾ 34636
ʀ 34635
ʁ 34634
ʂ 34633
ʃ 34632
ʊ 34631
ʋ 34630
ʌ 34629
ʐ 34628
ʑ 34627
ʒ 34626
ʔ 34625
ʰ 34624
ʲ 34623
ʳ 34622
ʷ 34621
ʻ 34620
ʼ 34619
ʾ 34618
ʿ 34617
ˈ 34616
ː 34615
ˡ 34614
ˢ 34613
ˣ 34612
́ 34611
̃ 34610
̍ 34609
̯ 34608
͡ 34607
Α 34606
Β 34605
Γ 34604
Δ 34603
Ε 34602
Η 34601
Θ 34600
Ι 34599
Κ 34598
Λ 34597
Μ 34596
Ν 34595
Ο 34594
Π 34593
Σ 34592
Τ 34591
Φ 34590
Χ 34589
Ψ 34588
Ω 34587
ά 34586
έ 34585
ή 34584
ί 34583
α 34582
β 34581
γ 34580
δ 34579
ε 34578
ζ 34577
η 34576
θ 34575
ι 34574
κ 34573
λ 34572
μ 34571
ν 34570
ξ 34569
ο 34568
π 34567
ρ 34566
ς 34565
σ 34564
τ 34563
υ 34562
φ 34561
χ 34560
ψ 34559
ω 34558
ό 34557
ύ 34556
ώ 34555
І 34554
Ј 34553
А 34552
Б 34551
В 34550
Г 34549
Д 34548
Е 34547
Ж 34546
З 34545
И 34544
К 34543
Л 34542
М 34541
Н 34540
О 34539
П 34538
Р 34537
С 34536
Т 34535
У 34534
Ф 34533
Х 34532
Ц 34531
Ч 34530
Ш 34529
Э 34528
Ю 34527
Я 34526
а 34525
б 34524
в 34523
г 34522
д 34521
е 34520
ж 34519
з 34518
и 34517
й 34516
к 34515
л 34514
м 34513
н 34512
о 34511
п 34510
р 34509
с 34508
т 34507
у 34506
ф 34505
х 34504
ц 34503
ч 34502
ш 34501
щ 34500
ъ 34499
ы 34498
ь 34497
э 34496
ю 34495
я 34494
ё 34493
і 34492
ї 34491
ј 34490
њ 34489
ћ 34488
Ա 34487
Հ 34486
ա 34485
ե 34484
ի 34483
կ 34482
մ 34481
յ 34480
ն 34479
ո 34478
ս 34477
տ 34476
ր 34475
ւ 34474
ְ 34473
ִ 34472
ֵ 34471
ֶ 34470
ַ 34469
ָ 34468
ֹ 34467
ּ 34466
א 34465
ב 34464
ג 34463
ד 34462
ה 34461
ו 34460
ז 34459
ח 34458
ט 34457
י 34456
כ 34455
ל 34454
ם 34453
מ 34452
ן 34451
נ 34450
ס 34449
ע 34448
פ 34447
צ 34446
ק 34445
ר 34444
ש 34443
ת 34442
، 34441
ء 34440
آ 34439
أ 34438
إ 34437
ئ 34436
ا 34435
ب 34434
ة 34433
ت 34432
ث 34431
ج 34430
ح 34429
خ 34428
د 34427
ذ 34426
ر 34425
ز 34424
س 34423
ش 34422
ص 34421
ض 34420
ط 34419
ظ 34418
ع 34417
غ 34416
ف 34415
ق 34414
ك 34413
ل 34412
م 34411
ن 34410
ه 34409
و 34408
ى 34407
ي 34406
َ 34405
ِ 34404
ٹ 34403
پ 34402
چ 34401
ک 34400
گ 34399
ہ 34398
ی 34397
ے 34396
ं 34395
आ 34394
क 34393
ग 34392
च 34391
ज 34390
ण 34389
त 34388
द 34387
ध 34386
न 34385
प 34384
ब 34383
भ 34382
म 34381
य 34380
र 34379
ल 34378
व 34377
श 34376
ष 34375
स 34374
ह 34373
ा 34372
ि 34371
ी 34370
ु 34369
े 34368
ो 34367
् 34366
। 34365
॥ 34364
আ 34363
ই 34362
এ 34361
ও 34360
ক 34359
খ 34358
গ 34357
চ 34356
ছ 34355
জ 34354
ট 34353
ত 34352
থ 34351
দ 34350
ধ 34349
ন 34348
প 34347
ব 34346
ম 34345
য 34344
র 34343
ল 34342
শ 34341
স 34340
হ 34339
় 34338
া 34337
ি 34336
ী 34335
ু 34334
ে 34333
ো 34332
্ 34331
য় 34330
க 34329
த 34328
ப 34327
ம 34326
ய 34325
ர 34324
ல 34323
வ 34322
ா 34321
ி 34320
ு 34319
் 34318
ร 34317
་ 34316
ག 34315
ང 34314
ད 34313
ན 34312
བ 34311
མ 34310
ར 34309
ལ 34308
ས 34307
ི 34306
ུ 34305
ེ 34304
ོ 34303
ა 34302
ე 34301
ი 34300
ლ 34299
ნ 34298
ო 34297
რ 34296
ს 34295
ᴬ 34294
ᴵ 34293
ᵀ 34292
ᵃ 34291
ᵇ 34290
ᵈ 34289
ᵉ 34288
ᵍ 34287
ᵏ 34286
ᵐ 34285
ᵒ 34284
ᵖ 34283
ᵗ 34282
ᵘ 34281
ᵢ 34280
ᵣ 34279
ᵤ 34278
ᵥ 34277
ᶜ 34276
ᶠ 34275
ḍ 34274
Ḥ 34273
ḥ 34272
Ḩ 34271
ḩ 34270
ḳ 34269
ṃ 34268
ṅ 34267
ṇ 34266
ṛ 34265
ṣ 34264
ṭ 34263
ạ 34262
ả 34261
ấ 34260
ầ 34259
ẩ 34258
ậ 34257
ắ 34256
ế 34255
ề 34254
ể 34253
ễ 34252
ệ 34251
ị 34250
ọ 34249
ố 34248
ồ 34247
ổ 34246
ộ 34245
ớ 34244
ờ 34243
ợ 34242
ụ 34241
ủ 34240
ứ 34239
ừ 34238
ử 34237
ữ 34236
ự 34235
ỳ 34234
ỹ 34233
ἀ 34232
ἐ 34231
ὁ 34230
ὐ 34229
ὰ 34228
ὶ 34227
ὸ 34226
ῆ 34225
ῖ 34224
ῦ 34223
ῶ 34222
‐ 34221
‑ 34220
‒ 34219
– 34218
— 34217
― 34216
‖ 34215
‘ 34214
’ 34213
‚ 34212
“ 34211
” 34210
„ 34209
† 34208
‡ 34207
• 34206
… 34205
‰ 34204
′ 34203
″ 34202
⁄ 34201
⁰ 34200
ⁱ 34199
⁴ 34198
⁵ 34197
⁶ 34196
⁷ 34195
⁸ 34194
⁹ 34193
⁺ 34192
⁻ 34191
ⁿ 34190
₀ 34189
₁ 34188
₂ 34187
₃ 34186
₄ 34185
₅ 34184
₆ 34183
₇ 34182
₈ 34181
₉ 34180
₊ 34179
₍ 34178
₎ 34177
ₐ 34176
ₑ 34175
ₒ 34174
ₓ 34173
ₕ 34172
ₖ 34171
ₘ 34170
ₙ 34169
ₚ 34168
ₛ 34167
ₜ 34166
₤ 34165
€ 34164
₱ 34163
₹ 34162
ℓ 34161
№ 34160
ℝ 34159
⅓ 34158
← 34157
↑ 34156
→ 34155
↔ 34154
⇌ 34153
⇒ 34152
∂ 34151
∈ 34150
− 34149
∗ 34148
∘ 34147
√ 34146
∞ 34145
∧ 34144
∨ 34143
∩ 34142
∪ 34141
≈ 34140
≠ 34139
≡ 34138
≤ 34137
≥ 34136
⊂ 34135
⊆ 34134
⊕ 34133
⋅ 34132
─ 34131
│ 34130
■ 34129
● 34128
★ 34127
☆ 34126
☉ 34125
♠ 34124
♣ 34123
♥ 34122
♦ 34121
♭ 34120
♯ 34119
⟨ 34118
⟩ 34117
ⱼ 34116
、 34115
。 34114
《 34113
》 34112
「 34111
」 34110
『 34109
』 34108
〜 34107
い 34106
う 34105
え 34104
お 34103
か 34102
き 34101
く 34100
け 34099
こ 34098
さ 34097
し 34096
す 34095
せ 34094
そ 34093
た 34092
ち 34091
つ 34090
て 34089
と 34088
な 34087
に 34086
の 34085
は 34084
ひ 34083
ま 34082
み 34081
む 34080
め 34079
も 34078
や 34077
ゆ 34076
よ 34075
ら 34074
り 34073
る 34072
れ 34071
ん 34070
ア 34069
ィ 34068
イ 34067
ウ 34066
エ 34065
オ 34064
カ 34063
ガ 34062
キ 34061
ク 34060
グ 34059
コ 34058
サ 34057
シ 34056
ジ 34055
ス 34054
ズ 34053
タ 34052
ダ 34051
ッ 34050
テ 34049
デ 34048
ト 34047
ド 34046
ナ 34045
ニ 34044
ハ 34043
バ 34042
パ 34041
フ 34040
ブ 34039
プ 34038
マ 34037
ミ 34036
ム 34035
ャ 34034
ュ 34033
ラ 34032
リ 34031
ル 34030
レ 34029
ロ 34028
ン 34027
・ 34026
ー 34025
一 34024
三 34023
上 34022
下 34021
中 34020
事 34019
二 34018
井 34017
京 34016
人 34015
亻 34014
仁 34013
佐 34012
侍 34011
光 34010
公 34009
力 34008
北 34007
十 34006
南 34005
原 34004
口 34003
史 34002
司 34001
吉 34000
同 33999
和 33998
囗 33997
国 33996
國 33995
土 33994
城 33993
士 33992
大 33991
天 33990
太 33989
夫 33988
女 33987
子 33986
宀 33985
安 33984
宮 33983
宿 33982
小 33981
尚 33980
山 33979
島 33978
川 33977
州 33976
平 33975
年 33974
心 33973
愛 33972
戸 33971
文 33970
新 33969
方 33968
日 33967
明 33966
星 33965
書 33964
月 33963
木 33962
本 33961
李 33960
村 33959
東 33958
松 33957
林 33956
正 33955
武 33954
氏 33953
水 33952
氵 33951
江 33950
河 33949
海 33948
版 33947
犬 33946
王 33945
生 33944
田 33943
白 33942
皇 33941
省 33940
真 33939
石 33938
社 33937
神 33936
竹 33935
美 33934
義 33933
花 33932
藤 33931
西 33930
谷 33929
車 33928
辶 33927
道 33926
郎 33925
郡 33924
部 33923
野 33922
金 33921
長 33920
門 33919
陽 33918
青 33917
食 33916
馬 33915
高 33914
龍 33913
龸 33912
사 33911
씨 33910
의 33909
이 33908
한 33907
ﬁ 33906
ﬂ 33905
！ 33904
（ 33903
） 33902
， 33901
－ 33900
／ 33899
： 33898
the 33897
of 33896
and 33895
to 33894
in 33893
was 33892
The 33891
is 33890
for 33889
as 33888
on 33887
with 33886
that 33885
##s 33884
his 33883
by 33882
he 33881
at 33880
from 33879
it 33878
her 33877
He 33876
had 33875
an 33874
were 33873
you 33872
be 33871
In 33870
she 33869
are 33868
but 33867
which 33866
It 33865
not 33864
or 33863
have 33862
my 33861
him 33860
one 33859
this 33858
me 33857
has 33856
also 33855
up 33854
their 33853
first 33852
out 33851
who 33850
been 33849
they 33848
She 33847
into 33846
all 33845
would 33844
its 33843
##ing 33842
time 33841
two 33840
##a 33839
##e 33838
said 33837
about 33836
when 33835
over 33834
more 33833
other 33832
can 33831
after 33830
back 33829
them 33828
then 33827
##ed 33826
there 33825
like 33824
so 33823
only 33822
##n 33821
could 33820
##d 33819
##i 33818
##y 33817
what 33816
no 33815
##o 33814
where 33813
This 33812
made 33811
than 33810
if 33809
You 33808
##ly 33807
through 33806
we 33805
before 33804
##r 33803
just 33802
some 33801
##er 33800
years 33799
do 33798
New 33797
##t 33796
down 33795
between 33794
new 33793
now 33792
will 33791
three 33790
most 33789
On 33788
around 33787
year 33786
used 33785
such 33784
being 33783
well 33782
during 33781
They 33780
know 33779
against 33778
under 33777
later 33776
did 33775
part 33774
known 33773
off 33772
while 33771
His 33770
re 33769
... 33768
##l 33767
people 33766
until 33765
way 33764
American 33763
didn 33762
University 33761
your 33760
both 33759
many 33758
get 33757
United 33756
became 33755
head 33754
There 33753
second 33752
As 33751
work 33750
any 33749
But 33748
still 33747
again 33746
born 33745
even 33744
eyes 33743
After 33742
including 33741
de 33740
took 33739
And 33738
long 33737
team 33736
season 33735
family 33734
see 33733
right 33732
same 33731
called 33730
name 33729
because 33728
film 33727
don 33726
10 33725
found 33724
much 33723
school 33722
##es 33721
going 33720
won 33719
place 33718
away 33717
We 33716
day 33715
left 33714
John 33713
000 33712
hand 33711
since 33710
World 33709
these 33708
how 33707
make 33706
number 33705
each 33704
life 33703
area 33702
man 33701
four 33700
go 33699
No 33698
here 33697
very 33696
National 33695
##m 33694
played 33693
released 33692
never 33691
began 33690
States 33689
album 33688
home 33687
last 33686
too 33685
held 33684
several 33683
May 33682
own 33681
##on 33680
take 33679
end 33678
School 33677
##h 33676
ll 33675
series 33674
What 33673
want 33672
use 33671
another 33670
city 33669
When 33668
2010 33667
side 33666
At 33665
may 33664
That 33663
came 33662
face 33661
June 33660
think 33659
game 33658
those 33657
high 33656
March 33655
early 33654
September 33653
##al 33652
2011 33651
looked 33650
July 33649
state 33648
small 33647
thought 33646
went 33645
January 33644
October 33643
##u 33642
based 33641
August 33640
##us 33639
world 33638
good 33637
April 33636
York 33635
us 33634
12 33633
2012 33632
2008 33631
For 33630
2009 33629
group 33628
along 33627
few 33626
South 33625
little 33624
##k 33623
following 33622
November 33621
something 33620
2013 33619
December 33618
set 33617
2007 33616
old 33615
2006 33614
2014 33613
located 33612
##an 33611
music 33610
County 33609
City 33608
former 33607
##in 33606
room 33605
ve 33604
next 33603
All 33602
##man 33601
got 33600
father 33599
house 33598
##g 33597
body 33596
15 33595
20 33594
18 33593
started 33592
If 33591
2015 33590
town 33589
our 33588
line 33587
War 33586
large 33585
population 33584
named 33583
British 33582
company 33581
member 33580
five 33579
My 33578
single 33577
##en 33576
age 33575
State 33574
moved 33573
February 33572
11 33571
Her 33570
should 33569
century 33568
government 33567
built 33566
come 33565
best 33564
show 33563
However 33562
within 33561
look 33560
men 33559
door 33558
without 33557
need 33556
wasn 33555
2016 33554
water 33553
One 33552
system 33551
knew 33550
every 33549
died 33548
League 33547
turned 33546
asked 33545
North 33544
St 33543
wanted 33542
building 33541
received 33540
song 33539
served 33538
though 33537
felt 33536
##ia 33535
station 33534
band 33533
##ers 33532
local 33531
public 33530
himself 33529
different 33528
death 33527
say 33526
##1 33525
30 33524
##2 33523
2005 33522
16 33521
night 33520
behind 33519
children 33518
English 33517
members 33516
near 33515
saw 33514
together 33513
son 33512
14 33511
voice 33510
village 33509
13 33508
hands 33507
help 33506
##3 33505
due 33504
French 33503
London 33502
top 33501
told 33500
open 33499
published 33498
third 33497
2017 33496
play 33495
across 33494
During 33493
put 33492
final 33491
often 33490
include 33489
25 33488
##le 33487
main 33486
having 33485
2004 33484
once 33483
ever 33482
let 33481
book 33480
led 33479
gave 33478
late 33477
front 33476
find 33475
club 33474
##4 33473
German 33472
included 33471
species 33470
College 33469
form 33468
opened 33467
mother 33466
women 33465
enough 33464
West 33463
must 33462
2000 33461
power 33460
really 33459
17 33458
making 33457
half 33456
##6 33455
order 33454
might 33453
##is 33452
given 33451
million 33450
times 33449
days 33448
point 33447
full 33446
service 33445
With 33444
km 33443
major 33442
##7 33441
original 33440
become 33439
seen 33438
II 33437
north 33436
six 33435
##te 33434
love 33433
##0 33432
national 33431
International 33430
##5 33429
24 33428
So 33427
District 33426
lost 33425
run 33424
couldn 33423
career 33422
always 33421
##9 33420
2003 33419
##th 33418
country 33417
##z 33416
House 33415
air 33414
tell 33413
south 33412
worked 33411
woman 33410
player 33409
##A 33408
almost 33407
war 33406
River 33405
##ic 33404
married 33403
continued 33402
Then 33401
James 33400
close 33399
black 33398
short 33397
##8 33396
##na 33395
using 33394
history 33393
returned 33392
light 33391
car 33390
##ra 33389
sure 33388
William 33387
things 33386
General 33385
##ry 33384
2002 33383
better 33382
support 33381
100 33380
among 33379
From 33378
feet 33377
King 33376
anything 33375
21 33374
19 33373
established 33372
district 33371
2001 33370
feel 33369
great 33368
##ton 33367
level 33366
Cup 33365
These 33364
written 33363
games 33362
others 33361
already 33360
title 33359
story 33358
##p 33357
law 33356
thing 33355
US 33354
record 33353
role 33352
however 33351
By 33350
students 33349
England 33348
white 33347
control 33346
least 33345
inside 33344
land 33343
##C 33342
22 33341
give 33340
community 33339
hard 33338
##ie 33337
non 33336
##c 33335
produced 33334
George 33333
round 33332
period 33331
Park 33330
business 33329
various 33328
##ne 33327
does 33326
present 33325
wife 33324
far 33323
taken 33322
per 33321
reached 33320
David 33319
able 33318
version 33317
working 33316
young 33315
live 33314
created 33313
joined 33312
East 33311
living 33310
appeared 33309
case 33308
High 33307
done 33306
23 33305
important 33304
President 33303
Award 33302
France 33301
position 33300
office 33299
looking 33298
total 33297
general 33296
class 33295
To 33294
production 33293
##S 33292
football 33291
party 33290
brother 33289
keep 33288
mind 33287
free 33286
Street 33285
hair 33284
announced 33283
development 33282
either 33281
nothing 33280
moment 33279
Church 33278
followed 33277
wrote 33276
why 33275
India 33274
San 33273
election 33272
1999 33271
lead 33270
How 33269
##ch 33268
##rs 33267
words 33266
European 33265
course 33264
considered 33263
America 33262
arms 33261
Army 33260
political 33259
##la 33258
28 33257
26 33256
west 33255
east 33254
ground 33253
further 33252
church 33251
less 33250
site 33249
First 33248
Not 33247
Australia 33246
toward 33245
California 33244
##ness 33243
described 33242
works 33241
An 33240
Council 33239
heart 33238
past 33237
military 33236
27 33235
##or 33234
heard 33233
field 33232
human 33231
soon 33230
founded 33229
1998 33228
playing 33227
trying 33226
##x 33225
##ist 33224
##ta 33223
television 33222
mouth 33221
although 33220
taking 33219
win 33218
fire 33217
Division 33216
##ity 33215
Party 33214
Royal 33213
program 33212
Some 33211
Don 33210
Association 33209
According 33208
tried 33207
TV 33206
Paul 33205
outside 33204
daughter 33203
Best 33202
While 33201
someone 33200
match 33199
recorded 33198
Canada 33197
closed 33196
region 33195
Air 33194
above 33193
months 33192
elected 33191
##da 33190
##ian 33189
road 33188
##ar 33187
brought 33186
move 33185
1997 33184
leave 33183
##um 33182
Thomas 33181
1996 33180
am 33179
low 33178
Robert 33177
formed 33176
person 33175
services 33174
points 33173
Mr 33172
miles 33171
##b 33170
stop 33169
rest 33168
doing 33167
needed 33166
international 33165
release 33164
floor 33163
start 33162
sound 33161
call 33160
killed 33159
real 33158
dark 33157
research 33156
finished 33155
language 33154
Michael 33153
professional 33152
change 33151
sent 33150
50 33149
upon 33148
29 33147
track 33146
hit 33145
event 33144
2018 33143
term 33142
example 33141
Germany 33140
similar 33139
return 33138
##ism 33137
fact 33136
pulled 33135
stood 33134
says 33133
ran 33132
information 33131
yet 33130
result 33129
developed 33128
girl 33127
##re 33126
God 33125
1995 33124
areas 33123
signed 33122
decided 33121
##ment 33120
Company 33119
seemed 33118
##el 33117
co 33116
turn 33115
race 33114
common 33113
video 33112
Charles 33111
Indian 33110
##ation 33109
blood 33108
art 33107
red 33106
##able 33105
added 33104
rather 33103
1994 33102
met 33101
director 33100
addition 33099
design 33098
average 33097
minutes 33096
##ies 33095
##ted 33094
available 33093
bed 33092
coming 33091
friend 33090
idea 33089
kind 33088
Union 33087
Road 33086
remained 33085
##ting 33084
everything 33083
##ma 33082
running 33081
care 33080
finally 33079
Chinese 33078
appointed 33077
1992 33076
Australian 33075
##ley 33074
popular 33073
mean 33072
teams 33071
probably 33070
##land 33069
usually 33068
project 33067
social 33066
Championship 33065
possible 33064
word 33063
Russian 33062
instead 33061
mi 33060
herself 33059
##T 33058
Peter 33057
Hall 33056
Center 33055
seat 33054
style 33053
money 33052
1993 33051
else 33050
Department 33049
table 33048
Music 33047
current 33046
31 33045
features 33044
special 33043
events 33042
character 33041
Two 33040
square 33039
sold 33038
debut 33037
##v 33036
process 33035
Although 33034
Since 33033
##ka 33032
40 33031
Central 33030
currently 33029
education 33028
placed 33027
lot 33026
China 33025
quickly 33024
forward 33023
seven 33022
##ling 33021
Europe 33020
arm 33019
performed 33018
Japanese 33017
1991 33016
Henry 33015
Now 33014
Dr 33013
##ion 33012
week 33011
Group 33010
myself 33009
big 33008
UK 33007
Washington 33006
ten 33005
deep 33004
1990 33003
Club 33002
Japan 33001
space 33000
La 32999
directed 32998
smile 32997
episode 32996
hours 32995
whole 32994
##de 32993
##less 32992
Why 32991
wouldn 32990
designed 32989
strong 32988
training 32987
changed 32986
Society 32985
stage 32984
involved 32983
hadn 32982
towards 32981
leading 32980
police 32979
eight 32978
kept 32977
Institute 32976
study 32975
largest 32974
child 32973
eventually 32972
private 32971
modern 32970
Court 32969
throughout 32968
getting 32967
originally 32966
attack 32965
##E 32964
talk 32963
Great 32962
longer 32961
songs 32960
alone 32959
##ine 32958
wide 32957
dead 32956
walked 32955
shot 32954
##ri 32953
Oh 32952
force 32951
##st 32950
Art 32949
today 32948
friends 32947
Island 32946
Richard 32945
1989 32944
center 32943
construction 32942
believe 32941
size 32940
White 32939
ship 32938
completed 32937
##B 32936
gone 32935
Just 32934
rock 32933
sat 32932
##R 32931
radio 32930
below 32929
entire 32928
families 32927
league 32926
includes 32925
type 32924
lived 32923
official 32922
range 32921
hold 32920
featured 32919
Most 32918
##ter 32917
president 32916
passed 32915
means 32914
##f 32913
forces 32912
lips 32911
Mary 32910
Do 32909
guitar 32908
##ce 32907
food 32906
wall 32905
Of 32904
spent 32903
Its 32902
performance 32901
hear 32900
##P 32899
Western 32898
reported 32897
sister 32896
##et 32895
morning 32894
##M 32893
especially 32892
##ive 32891
Minister 32890
itself 32889
post 32888
bit 32887
groups 32886
1988 32885
##tion 32884
Black 32883
##ng 32882
Well 32881
raised 32880
sometimes 32879
Canadian 32878
Paris 32877
Spanish 32876
replaced 32875
schools 32874
Academy 32873
leaving 32872
central 32871
female 32870
Christian 32869
Jack 32868
whose 32867
college 32866
onto 32865
provided 32864
##D 32863
##ville 32862
players 32861
actually 32860
stopped 32859
##son 32858
Museum 32857
doesn 32856
##ts 32855
books 32854
fight 32853
allowed 32852
##ur 32851
beginning 32850
Records 32849
awarded 32848
parents 32847
coach 32846
##os 32845
Red 32844
saying 32843
##ck 32842
Smith 32841
Yes 32840
Lake 32839
##L 32838
aircraft 32837
1987 32836
##ble 32835
previous 32834
ft 32833
action 32832
Italian 32831
African 32830
happened 32829
vocals 32828
Act 32827
future 32826
court 32825
##ge 32824
1986 32823
degree 32822
phone 32821
##ro 32820
Is 32819
countries 32818
winning 32817
breath 32816
Love 32815
river 32814
matter 32813
Lord 32812
Other 32811
list 32810
self 32809
parts 32808
##ate 32807
provide 32806
cut 32805
shows 32804
plan 32803
1st 32802
interest 32801
##ized 32800
Africa 32799
stated 32798
Sir 32797
fell 32796
owned 32795
earlier 32794
ended 32793
competition 32792
attention 32791
1985 32790
lower 32789
nearly 32788
bad 32787
older 32786
stay 32785
Saint 32784
##se 32783
certain 32782
1984 32781
fingers 32780
blue 32779
try 32778
fourth 32777
Grand 32776
##as 32775
king 32774
##nt 32773
makes 32772
chest 32771
movement 32770
states 32769
moving 32768
data 32767
introduced 32766
model 32765
date 32764
section 32763
Los 32762
deal 32761
##I 32760
skin 32759
entered 32758
middle 32757
success 32756
Texas 32755
##w 32754
summer 32753
island 32752
##N 32751
Republic 32750
length 32749
husband 32748
1980 32747
##ey 32746
reason 32745
anyone 32744
forced 32743
via 32742
base 32741
500 32740
job 32739
covered 32738
Festival 32737
Roman 32736
successful 32735
rights 32734
cover 32733
Man 32732
writing 32731
Ireland 32730
##F 32729
related 32728
goal 32727
takes 32726
buildings 32725
true 32724
weeks 32723
1983 32722
Because 32721
opening 32720
novel 32719
ISBN 32718
meet 32717
gold 32716
##ous 32715
mid 32714
km² 32713
standing 32712
Football 32711
Chicago 32710
shook 32709
whom 32708
##ki 32707
1982 32706
Day 32705
feeling 32704
scored 32703
boy 32702
higher 32701
Force 32700
leader 32699
heavy 32698
fall 32697
question 32696
sense 32695
army 32694
Second 32693
energy 32692
meeting 32691
themselves 32690
kill 32689
##am 32688
board 32687
census 32686
##ya 32685
##ns 32684
mine 32683
meant 32682
market 32681
required 32680
battle 32679
campaign 32678
attended 32677
approximately 32676
Kingdom 32675
runs 32674
active 32673
##ha 32672
contract 32671
clear 32670
previously 32669
health 32668
1979 32667
Arts 32666
complete 32665
Catholic 32664
couple 32663
units 32662
##ll 32661
##ty 32660
Committee 32659
shoulder 32658
sea 32657
systems 32656
listed 32655
##O 32654
caught 32653
tournament 32652
##G 32651
northern 32650
author 32649
Film 32648
Your 32647
##men 32646
holding 32645
offered 32644
personal 32643
1981 32642
southern 32641
artist 32640
traditional 32639
studio 32638
200 32637
capital 32636
##ful 32635
regular 32634
ask 32633
giving 32632
organization 32631
month 32630
news 32629
Are 32628
read 32627
managed 32626
helped 32625
studied 32624
student 32623
defeated 32622
natural 32621
industry 32620
Year 32619
noted 32618
decision 32617
Government 32616
quite 32615
##id 32614
smiled 32613
1972 32612
Maybe 32611
tracks 32610
##ke 32609
Mark 32608
al 32607
media 32606
engine 32605
hour 32604
Their 32603
relationship 32602
plays 32601
property 32600
structure 32599
1976 32598
ago 32597
Hill 32596
Martin 32595
1978 32594
ready 32593
Many 32592
Like 32591
Bay 32590
immediately 32589
generally 32588
Italy 32587
Greek 32586
practice 32585
caused 32584
division 32583
significant 32582
Joseph 32581
speed 32580
Let 32579
thinking 32578
completely 32577
1974 32576
primary 32575
mostly 32574
##field 32573
##K 32572
1975 32571
##to 32570
Even 32569
writer 32568
##led 32567
dropped 32566
magazine 32565
collection 32564
understand 32563
route 32562
highest 32561
particular 32560
films 32559
lines 32558
network 32557
Science 32556
loss 32555
carried 32554
direction 32553
green 32552
1977 32551
location 32550
producer 32549
according 32548
Women 32547
Queen 32546
neck 32545
thus 32544
independent 32543
view 32542
1970 32541
Angeles 32540
Soviet 32539
distance 32538
problem 32537
Board 32536
tour 32535
western 32534
income 32533
appearance 32532
access 32531
Mexico 32530
nodded 32529
street 32528
surface 32527
arrived 32526
believed 32525
Old 32524
1968 32523
1973 32522
becoming 32521
whether 32520
1945 32519
figure 32518
singer 32517
stand 32516
Following 32515
issue 32514
window 32513
wrong 32512
pain 32511
everyone 32510
lives 32509
issues 32508
park 32507
slowly 32506
la 32505
act 32504
##va 32503
bring 32502
Lee 32501
operations 32500
key 32499
comes 32498
fine 32497
cold 32496
famous 32495
Navy 32494
1971 32493
Me 32492
additional 32491
individual 32490
##ner 32489
Zealand 32488
goals 32487
county 32486
contains 32485
Service 32484
minute 32483
2nd 32482
reach 32481
talking 32480
particularly 32479
##ham 32478
movie 32477
Director 32476
glass 32475
paper 32474
studies 32473
##co 32472
railway 32471
standard 32470
Education 32469
45 32468
represented 32467
Chief 32466
Louis 32465
launched 32464
Star 32463
terms 32462
60 32461
1969 32460
experience 32459
watched 32458
Another 32457
Press 32456
Tom 32455
staff 32454
starting 32453
subject 32452
break 32451
Virginia 32450
nine 32449
eye 32448
##age 32447
evidence 32446
foot 32445
##est 32444
companies 32443
Prince 32442
##V 32441
gun 32440
create 32439
Big 32438
People 32437
guy 32436
Green 32435
simply 32434
numerous 32433
##line 32432
increased 32431
twenty 32430
##ga 32429
##do 32428
1967 32427
award 32426
officer 32425
stone 32424
Before 32423
material 32422
Northern 32421
grew 32420
male 32419
plant 32418
Life 32417
legs 32416
step 32415
Al 32414
unit 32413
35 32412
except 32411
answer 32410
##U 32409
report 32408
response 32407
Edward 32406
commercial 32405
edition 32404
trade 32403
science 32402
##ca 32401
Irish 32400
Law 32399
shown 32398
rate 32397
failed 32396
##ni 32395
remains 32394
changes 32393
mm 32392
limited 32391
larger 32390
Later 32389
cause 32388
waiting 32387
Time 32386
##wood 32385
cost 32384
Bill 32383
manager 32382
activities 32381
likely 32380
allow 32379
operated 32378
retired 32377
##ping 32376
65 32375
directly 32374
Who 32373
associated 32372
effect 32371
hell 32370
Florida 32369
straight 32368
hot 32367
Valley 32366
management 32365
girls 32364
expected 32363
eastern 32362
Mike 32361
chance 32360
cast 32359
centre 32358
chair 32357
hurt 32356
problems 32355
##li 32354
walk 32353
programs 32352
Team 32351
characters 32350
Battle 32349
edge 32348
pay 32347
maybe 32346
corner 32345
majority 32344
medical 32343
Joe 32342
Summer 32341
##io 32340
attempt 32339
Pacific 32338
command 32337
Radio 32336
##by 32335
names 32334
municipality 32333
1964 32332
train 32331
economic 32330
Brown 32329
feature 32328
sex 32327
source 32326
agreed 32325
remember 32324
Three 32323
1966 32322
1965 32321
Pennsylvania 32320
victory 32319
senior 32318
annual 32317
III 32316
Southern 32315
results 32314
Sam 32313
serving 32312
religious 32311
Jones 32310
appears 32309
##der 32308
despite 32307
claimed 32306
Both 32305
musical 32304
matches 32303
fast 32302
security 32301
selected 32300
Young 32299
double 32298
complex 32297
hospital 32296
chief 32295
Times 32294
##ve 32293
Championships 32292
filled 32291
Public 32290
Despite 32289
beautiful 32288
Research 32287
plans 32286
Province 32285
##ally 32284
Wales 32283
##ko 32282
artists 32281
metal 32280
nearby 32279
Spain 32278
##il 32277
32 32276
houses 32275
supported 32274
piece 32273
##no 32272
stared 32271
recording 32270
nature 32269
legal 32268
Russia 32267
##ization 32266
remaining 32265
looks 32264
##sh 32263
bridge 32262
closer 32261
cases 32260
scene 32259
marriage 32258
Little 32257
##é 32256
uses 32255
Earth 32254
specific 32253
Frank 32252
theory 32251
Good 32250
discovered 32249
referred 32248
bass 32247
culture 32246
university 32245
presented 32244
Congress 32243
##go 32242
metres 32241
continue 32240
1960 32239
isn 32238
Awards 32237
meaning 32236
cell 32235
composed 32234
separate 32233
Series 32232
forms 32231
Blue 32230
cross 32229
##tor 32228
increase 32227
test 32226
computer 32225
slightly 32224
Where 32223
Jewish 32222
Town 32221
tree 32220
status 32219
1944 32218
variety 32217
responsible 32216
pretty 32215
initially 32214
##way 32213
realized 32212
pass 32211
provides 32210
Captain 32209
Alexander 32208
recent 32207
score 32206
broke 32205
Scott 32204
drive 32203
financial 32202
showed 32201
Line 32200
stories 32199
ordered 32198
soldiers 32197
genus 32196
operation 32195
gaze 32194
sitting 32193
society 32192
Only 32191
hope 32190
actor 32189
follow 32188
Empire 32187
Yeah 32186
technology 32185
happy 32184
focus 32183
policy 32182
spread 32181
situation 32180
##ford 32179
##ba 32178
Mrs 32177
watch 32176
Can 32175
1963 32174
Commission 32173
touch 32172
earned 32171
troops 32170
Under 32169
1962 32168
individuals 32167
cannot 32166
19th 32165
##lin 32164
mile 32163
expression 32162
exactly 32161
suddenly 32160
weight 32159
dance 32158
stepped 32157
places 32156
appear 32155
difficult 32154
Railway 32153
anti 32152
numbers 32151
kilometres 32150
star 32149
##ier 32148
department 32147
ice 32146
Britain 32145
removed 32144
Once 32143
##lo 32142
Boston 32141
value 32140
##ant 32139
mission 32138
trees 32137
Order 32136
sports 32135
join 32134
serve 32133
Major 32132
poor 32131
Poland 32130
mainly 32129
Theatre 32128
pushed 32127
Station 32126
##it 32125
Lady 32124
federal 32123
silver 32122
##ler 32121
foreign 32120
##ard 32119
Eastern 32118
##den 32117
box 32116
hall 32115
subsequently 32114
lies 32113
acquired 32112
1942 32111
ancient 32110
CD 32109
History 32108
Jean 32107
beyond 32106
##ger 32105
El 32104
##les 32103
growing 32102
championship 32101
native 32100
Parliament 32099
Williams 32098
watching 32097
direct 32096
overall 32095
offer 32094
Also 32093
80 32092
Secretary 32091
spoke 32090
Latin 32089
ability 32088
##ated 32087
safe 32086
presence 32085
##ial 32084
headed 32083
regional 32082
planned 32081
1961 32080
Johnson 32079
throat 32078
consists 32077
##W 32076
extended 32075
Or 32074
bar 32073
walls 32072
Chris 32071
stations 32070
politician 32069
Olympics 32068
influence 32067
share 32066
fighting 32065
speak 32064
hundred 32063
Carolina 32062
die 32061
stars 32060
##tic 32059
color 32058
Chapter 32057
##ish 32056
fear 32055
sleep 32054
goes 32053
Francisco 32052
oil 32051
Bank 32050
sign 32049
physical 32048
##berg 32047
Dutch 32046
seasons 32045
##rd 32044
Games 32043
Governor 32042
sorry 32041
lack 32040
Centre 32039
memory 32038
baby 32037
smaller 32036
charge 32035
Did 32034
multiple 32033
ships 32032
shirt 32031
Assembly 32030
amount 32029
leaves 32028
3rd 32027
Foundation 32026
conditions 32025
1943 32024
Rock 32023
Democratic 32022
Daniel 32021
##at 32020
winner 32019
products 32018
##ina 32017
store 32016
latter 32015
Professor 32014
civil 32013
prior 32012
host 32011
1956 32010
soft 32009
vote 32008
needs 32007
Each 32006
rules 32005
1958 32004
pressure 32003
letter 32002
normal 32001
proposed 32000
levels 31999
records 31998
1959 31997
paid 31996
intended 31995
Victoria 31994
purpose 31993
okay 31992
historical 31991
issued 31990
1980s 31989
broadcast 31988
rule 31987
simple 31986
picked 31985
firm 31984
Sea 31983
1941 31982
Elizabeth 31981
1940 31980
serious 31979
featuring 31978
highly 31977
graduated 31976
mentioned 31975
choice 31974
1948 31973
replied 31972
percent 31971
Scotland 31970
##hi 31969
females 31968
constructed 31967
1957 31966
settled 31965
Steve 31964
recognized 31963
cities 31962
crew 31961
glanced 31960
kiss 31959
competed 31958
flight 31957
knowledge 31956
editor 31955
More 31954
Conference 31953
##H 31952
fifth 31951
elements 31950
##ee 31949
##tes 31948
function 31947
newspaper 31946
recently 31945
Miss 31944
cultural 31943
brown 31942
twice 31941
Office 31940
1939 31939
truth 31938
Creek 31937
1946 31936
households 31935
USA 31934
1950 31933
quality 31932
##tt 31931
border 31930
seconds 31929
destroyed 31928
pre 31927
wait 31926
ahead 31925
build 31924
image 31923
90 31922
cars 31921
##mi 31920
33 31919
promoted 31918
professor 31917
et 31916
bank 31915
medal 31914
text 31913
broken 31912
Middle 31911
revealed 31910
sides 31909
wing 31908
seems 31907
channel 31906
1970s 31905
Ben 31904
loved 31903
effort 31902
officers 31901
Will 31900
##ff 31899
70 31898
Israel 31897
Jim 31896
upper 31895
fully 31894
label 31893
Jr 31892
assistant 31891
powerful 31890
pair 31889
positive 31888
##ary 31887
gives 31886
1955 31885
20th 31884
races 31883
remain 31882
kitchen 31881
primarily 31880
##ti 31879
Sydney 31878
easy 31877
Tour 31876
whispered 31875
buried 31874
300 31873
News 31872
Polish 31871
1952 31870
Duke 31869
Columbia 31868
produce 31867
accepted 31866
00 31865
approach 31864
minor 31863
1947 31862
Special 31861
44 31860
Asian 31859
basis 31858
visit 31857
Fort 31856
Civil 31855
finish 31854
formerly 31853
beside 31852
leaned 31851
##ite 31850
median 31849
rose 31848
coast 31847
effects 31846
supposed 31845
Cross 31844
##hip 31843
Corps 31842
residents 31841
Jackson 31840
##ir 31839
Bob 31838
basketball 31837
36 31836
Asia 31835
seem 31834
Bishop 31833
Book 31832
##ber 31831
ring 31830
##ze 31829
owner 31828
BBC 31827
##ja 31826
transferred 31825
acting 31824
De 31823
appearances 31822
walking 31821
Le 31820
press 31819
grabbed 31818
1954 31817
officially 31816
1953 31815
##pe 31814
risk 31813
taught 31812
review 31811
##X 31810
lay 31809
##well 31808
council 31807
Avenue 31806
seeing 31805
losing 31804
Ohio 31803
Super 31802
province 31801
ones 31800
travel 31799
##sa 31798
projects 31797
equipment 31796
spot 31795
Berlin 31794
administrative 31793
heat 31792
potential 31791
shut 31790
capacity 31789
elections 31788
growth 31787
fought 31786
Republican 31785
mixed 31784
Andrew 31783
teacher 31782
turning 31781
strength 31780
shoulders 31779
beat 31778
wind 31777
1949 31776
Health 31775
follows 31774
camp 31773
suggested 31772
perhaps 31771
Alex 31770
mountain 31769
contact 31768
divided 31767
candidate 31766
fellow 31765
34 31764
Show 31763
necessary 31762
workers 31761
ball 31760
horse 31759
ways 31758
questions 31757
protect 31756
gas 31755
activity 31754
younger 31753
bottom 31752
founder 31751
Scottish 31750
screen 31749
treatment 31748
easily 31747
com 31746
##house 31745
dedicated 31744
Master 31743
warm 31742
Night 31741
Georgia 31740
Long 31739
von 31738
##me 31737
perfect 31736
website 31735
1960s 31734
piano 31733
efforts 31732
##ide 31731
Tony 31730
sort 31729
offers 31728
Development 31727
Simon 31726
executive 31725
##nd 31724
save 31723
Over 31722
Senate 31721
1951 31720
1990s 31719
draw 31718
master 31717
Police 31716
##ius 31715
renamed 31714
boys 31713
initial 31712
prominent 31711
damage 31710
Co 31709
##ov 31708
##za 31707
online 31706
begin 31705
occurred 31704
captured 31703
youth 31702
Top 31701
account 31700
tells 31699
Justice 31698
conducted 31697
forest 31696
##town 31695
bought 31694
teeth 31693
Jersey 31692
##di 31691
purchased 31690
agreement 31689
Michigan 31688
##ure 31687
campus 31686
prison 31685
becomes 31684
product 31683
secret 31682
guess 31681
Route 31680
huge 31679
types 31678
drums 31677
64 31676
split 31675
defeat 31674
estate 31673
housing 31672
##ot 31671
brothers 31670
Coast 31669
declared 31668
happen 31667
titled 31666
therefore 31665
sun 31664
commonly 31663
alongside 31662
Stadium 31661
library 31660
Home 31659
article 31658
steps 31657
telling 31656
slow 31655
assigned 31654
refused 31653
laughed 31652
wants 31651
Nick 31650
wearing 31649
Rome 31648
Open 31647
##ah 31646
Hospital 31645
pointed 31644
Taylor 31643
lifted 31642
escape 31641
participated 31640
##j 31639
drama 31638
parish 31637
Santa 31636
##per 31635
organized 31634
mass 31633
pick 31632
Airport 31631
gets 31630
Library 31629
unable 31628
pull 31627
Live 31626
##ging 31625
surrounding 31624
##ries 31623
focused 31622
Adam 31621
facilities 31620
##ning 31619
##ny 31618
38 31617
##ring 31616
notable 31615
era 31614
connected 31613
gained 31612
operating 31611
laid 31610
Regiment 31609
branch 31608
defined 31607
Christmas 31606
machine 31605
Four 31604
academic 31603
Iran 31602
adopted 31601
concept 31600
Men 31599
compared 31598
search 31597
traffic 31596
Max 31595
Maria 31594
greater 31593
##ding 31592
widely 31591
##burg 31590
serves 31589
1938 31588
37 31587
Go 31586
hotel 31585
shared 31584
typically 31583
scale 31582
1936 31581
leg 31580
suffered 31579
yards 31578
pieces 31577
Ministry 31576
Wilson 31575
episodes 31574
empty 31573
1918 31572
safety 31571
continues 31570
yellow 31569
historic 31568
settlement 31567
400 31566
Come 31565
Corporation 31564
enemy 31563
content 31562
picture 31561
evening 31560
territory 31559
method 31558
trial 31557
solo 31556
driver 31555
Here 31554
##ls 31553
entrance 31552
Prize 31551
spring 31550
whatever 31549
##ent 31548
75 31547
##ji 31546
reading 31545
Arthur 31544
##cy 31543
Our 31542
clothes 31541
Prime 31540
Illinois 31539
Kong 31538
code 31537
##ria 31536
sit 31535
Harry 31534
Federal 31533
chosen 31532
administration 31531
bodies 31530
begins 31529
stomach 31528
Though 31527
seats 31526
Hong 31525
density 31524
Sun 31523
leaders 31522
Field 31521
museum 31520
chart 31519
platform 31518
languages 31517
##ron 31516
birth 31515
holds 31514
Gold 31513
##un 31512
fish 31511
combined 31510
##ps 31509
4th 31508
1937 31507
largely 31506
captain 31505
trust 31504
Game 31503
van 31502
boat 31501
Oxford 31500
basic 31499
beneath 31498
Islands 31497
painting 31496
nice 31495
Toronto 31494
path 31493
males 31492
sources 31491
block 31490
conference 31489
parties 31488
murder 31487
clubs 31486
crowd 31485
calling 31484
About 31483
Business 31482
peace 31481
knows 31480
lake 31479
speaking 31478
stayed 31477
Brazil 31476
allowing 31475
Born 31474
unique 31473
thick 31472
Technology 31471
##que 31470
receive 31469
des 31468
semi 31467
alive 31466
noticed 31465
format 31464
##ped 31463
coffee 31462
digital 31461
##ned 31460
handed 31459
guard 31458
tall 31457
faced 31456
setting 31455
plants 31454
partner 31453
claim 31452
reduced 31451
temple 31450
animals 31449
determined 31448
classes 31447
##out 31446
estimated 31445
##ad 31444
Olympic 31443
providing 31442
Massachusetts 31441
learned 31440
Inc 31439
Philadelphia 31438
Social 31437
carry 31436
42 31435
possibly 31434
hosted 31433
tonight 31432
respectively 31431
Today 31430
shape 31429
Mount 31428
roles 31427
designated 31426
brain 31425
etc 31424
Korea 31423
thoughts 31422
Brian 31421
Highway 31420
doors 31419
background 31418
drew 31417
models 31416
footballer 31415
tone 31414
turns 31413
1935 31412
quiet 31411
tower 31410
wood 31409
bus 31408
write 31407
software 31406
weapons 31405
flat 31404
marked 31403
1920 31402
newly 31401
tight 31400
Eric 31399
finger 31398
Journal 31397
FC 31396
Van 31395
rise 31394
critical 31393
Atlantic 31392
granted 31391
returning 31390
communities 31389
humans 31388
quick 31387
39 31386
48 31385
ranked 31384
sight 31383
pop 31382
Swedish 31381
Stephen 31380
card 31379
analysis 31378
attacked 31377
##wa 31376
Sunday 31375
identified 31374
Jason 31373
champion 31372
situated 31371
1930 31370
expanded 31369
tears 31368
##nce 31367
reaching 31366
Davis 31365
protection 31364
Emperor 31363
positions 31362
nominated 31361
Bridge 31360
tax 31359
dress 31358
allows 31357
avoid 31356
leadership 31355
killing 31354
actress 31353
guest 31352
steel 31351
knowing 31350
electric 31349
cells 31348
disease 31347
grade 31346
unknown 31345
##ium 31344
resulted 31343
Pakistan 31342
confirmed 31341
##ged 31340
tongue 31339
covers 31338
##Y 31337
roof 31336
entirely 31335
applied 31334
votes 31333
drink 31332
interview 31331
exchange 31330
Township 31329
reasons 31328
##ised 31327
page 31326
calls 31325
dog 31324
agent 31323
nose 31322
teaching 31321
##ds 31320
##ists 31319
advanced 31318
wish 31317
Golden 31316
existing 31315
vehicle 31314
del 31313
1919 31312
develop 31311
attacks 31310
pressed 31309
Sports 31308
planning 31307
resulting 31306
facility 31305
Sarah 31304
notes 31303
1933 31302
Class 31301
Historic 31300
winter 31299
##mo 31298
audience 31297
Community 31296
household 31295
Netherlands 31294
creation 31293
##ize 31292
keeping 31291
1914 31290
claims 31289
dry 31288
guys 31287
opposite 31286
##ak 31285
explained 31284
Ontario 31283
secondary 31282
difference 31281
Francis 31280
actions 31279
organizations 31278
yard 31277
animal 31276
Up 31275
Lewis 31274
titles 31273
Several 31272
1934 31271
Ryan 31270
55 31269
Supreme 31268
rolled 31267
1917 31266
distribution 31265
figures 31264
afraid 31263
rural 31262
yourself 31261
##rt 31260
sets 31259
barely 31258
Instead 31257
passing 31256
awards 31255
41 31254
silence 31253
authority 31252
occupied 31251
environment 31250
windows 31249
engineering 31248
surprised 31247
flying 31246
crime 31245
reports 31244
Mountain 31243
powers 31242
driving 31241
succeeded 31240
reviews 31239
1929 31238
Head 31237
missing 31236
Song 31235
Jesus 31234
opportunity 31233
inspired 31232
ends 31231
albums 31230
conversation 31229
impact 31228
injury 31227
surprise 31226
billion 31225
learning 31224
heavily 31223
oldest 31222
union 31221
creating 31220
##ky 31219
festival 31218
literature 31217
letters 31216
sexual 31215
##tte 31214
apartment 31213
Final 31212
comedy 31211
nation 31210
orders 31209
##sen 31208
contemporary 31207
Power 31206
drawn 31205
existence 31204
connection 31203
##ating 31202
Post 31201
Junior 31200
remembered 31199
message 31198
Medal 31197
castle 31196
note 31195
engineer 31194
sounds 31193
Beach 31192
crossed 31191
##dy 31190
ear 31189
scientific 31188
sales 31187
##ai 31186
theme 31185
starts 31184
clearly 31183
##ut 31182
trouble 31181
##gan 31180
bag 31179
##han 31178
BC 31177
sons 31176
1928 31175
silent 31174
versions 31173
daily 31172
Studies 31171
ending 31170
Rose 31169
guns 31168
1932 31167
headquarters 31166
reference 31165
obtained 31164
Squadron 31163
concert 31162
none 31161
du 31160
Among 31159
##don 31158
prevent 31157
Member 31156
answered 31155
staring 31154
Between 31153
##lla 31152
portion 31151
drug 31150
liked 31149
association 31148
performances 31147
Nations 31146
formation 31145
Castle 31144
lose 31143
learn 31142
scoring 31141
relatively 31140
quarter 31139
47 31138
Premier 31137
##ors 31136
Sweden 31135
baseball 31134
attempted 31133
trip 31132
worth 31131
perform 31130
airport 31129
fields 31128
enter 31127
honor 31126
Medical 31125
rear 31124
commander 31123
officials 31122
condition 31121
supply 31120
materials 31119
52 31118
Anna 31117
volume 31116
threw 31115
Persian 31114
43 31113
interested 31112
Gallery 31111
achieved 31110
visited 31109
laws 31108
relief 31107
Area 31106
Matt 31105
singles 31104
Lieutenant 31103
Country 31102
fans 31101
Cambridge 31100
sky 31099
Miller 31098
effective 31097
tradition 31096
Port 31095
##ana 31094
minister 31093
extra 31092
entitled 31091
System 31090
sites 31089
authorities 31088
acres 31087
committee 31086
racing 31085
1931 31084
desk 31083
trains 31082
ass 31081
weren 31080
Family 31079
farm 31078
##ance 31077
industrial 31076
##head 31075
iron 31074
49 31073
abandoned 31072
Out 31071
Holy 31070
chairman 31069
waited 31068
frequently 31067
display 31066
Light 31065
transport 31064
starring 31063
Patrick 31062
Engineering 31061
eat 31060
FM 31059
judge 31058
reaction 31057
centuries 31056
price 31055
##tive 31054
Korean 31053
defense 31052
Get 31051
arrested 31050
1927 31049
send 31048
urban 31047
##ss 31046
pilot 31045
Okay 31044
Media 31043
reality 31042
arts 31041
soul 31040
thirty 31039
##be 31038
catch 31037
generation 31036
##nes 31035
apart 31034
Anne 31033
drop 31032
See 31031
##ving 31030
sixth 31029
trained 31028
Management 31027
magic 31026
cm 31025
height 31024
Fox 31023
Ian 31022
resources 31021
vampire 31020
principal 31019
Was 31018
haven 31017
##au 31016
Walter 31015
Albert 31014
rich 31013
1922 31012
causing 31011
entry 31010
##ell 31009
shortly 31008
46 31007
worry 31006
doctor 31005
composer 31004
rank 31003
Network 31002
bright 31001
showing 31000
regions 30999
1924 30998
wave 30997
carrying 30996
kissed 30995
finding 30994
missed 30993
Earl 30992
lying 30991
target 30990
vehicles 30989
Military 30988
controlled 30987
dinner 30986
##board 30985
briefly 30984
lyrics 30983
motion 30982
duty 30981
strange 30980
attempts 30979
invited 30978
kg 30977
villages 30976
5th 30975
Land 30974
##mer 30973
Christ 30972
prepared 30971
twelve 30970
check 30969
thousand 30968
earth 30967
copies 30966
en 30965
transfer 30964
citizens 30963
Americans 30962
politics 30961
nor 30960
theatre 30959
Project 30958
##bo 30957
clean 30956
rooms 30955
laugh 30954
##ran 30953
application 30952
contained 30951
anyway 30950
containing 30949
Sciences 30948
1925 30947
rare 30946
speech 30945
exist 30944
1950s 30943
falling 30942
passenger 30941
##im 30940
stands 30939
51 30938
##ol 30937
##ow 30936
phase 30935
governor 30934
kids 30933
details 30932
methods 30931
Vice 30930
employed 30929
performing 30928
counter 30927
Jane 30926
heads 30925
Channel 30924
wine 30923
opposition 30922
aged 30921
1912 30920
Every 30919
1926 30918
highway 30917
##ura 30916
1921 30915
aired 30914
978 30913
permanent 30912
Forest 30911
finds 30910
joint 30909
approved 30908
##pur 30907
brief 30906
doubt 30905
acts 30904
brand 30903
wild 30902
closely 30901
Ford 30900
Kevin 30899
chose 30898
shall 30897
port 30896
sweet 30895
fun 30894
asking 30893
Be 30892
##bury 30891
sought 30890
Dave 30889
Mexican 30888
mom 30887
Right 30886
Howard 30885
Moscow 30884
Charlie 30883
Stone 30882
##mann 30881
admitted 30880
##ver 30879
wooden 30878
1923 30877
Officer 30876
relations 30875
Hot 30874
combat 30873
publication 30872
chain 30871
shop 30870
inhabitants 30869
proved 30868
ideas 30867
address 30866
1915 30865
Memorial 30864
explain 30863
increasing 30862
conflict 30861
Anthony 30860
Melbourne 30859
narrow 30858
temperature 30857
slid 30856
1916 30855
worse 30854
selling 30853
documentary 30852
Ali 30851
Ray 30850
opposed 30849
vision 30848
dad 30847
extensive 30846
Infantry 30845
commissioned 30844
Doctor 30843
offices 30842
programming 30841
core 30840
respect 30839
storm 30838
##pa 30837
##ay 30836
##om 30835
promotion 30834
der 30833
struck 30832
anymore 30831
shit 30830
Region 30829
receiving 30828
DVD 30827
alternative 30826
##ue 30825
ride 30824
maximum 30823
1910 30822
##ious 30821
Third 30820
Affairs 30819
cancer 30818
Executive 30817
##op 30816
dream 30815
18th 30814
Due 30813
##ker 30812
##worth 30811
economy 30810
IV 30809
Billboard 30808
identity 30807
subsequent 30806
statement 30805
skills 30804
##back 30803
funding 30802
##ons 30801
Round 30800
Foreign 30799
truck 30798
Please 30797
lights 30796
wondered 30795
##ms 30794
frame 30793
yes 30792
Still 30791
districts 30790
fiction 30789
Colonel 30788
converted 30787
150 30786
grown 30785
accident 30784
critics 30783
fit 30782
Information 30781
architecture 30780
Point 30779
Five 30778
armed 30777
Billy 30776
poet 30775
functions 30774
consisted 30773
suit 30772
Turkish 30771
Band 30770
object 30769
desire 30768
##ities 30767
sounded 30766
flow 30765
Norwegian 30764
articles 30763
Marie 30762
pulling 30761
thin 30760
singing 30759
Hunter 30758
Human 30757
Battalion 30756
Federation 30755
Kim 30754
origin 30753
represent 30752
dangerous 30751
weather 30750
fuel 30749
ex 30748
##sing 30747
Last 30746
bedroom 30745
aid 30744
knees 30743
Alan 30742
angry 30741
assumed 30740
plane 30739
Something 30738
founding 30737
concerned 30736
global 30735
Fire 30734
di 30733
please 30732
Portuguese 30731
touched 30730
Roger 30729
nuclear 30728
Register 30727
Jeff 30726
fixed 30725
royal 30724
lie 30723
finals 30722
NFL 30721
Manchester 30720
towns 30719
handle 30718
shaped 30717
Chairman 30716
Dean 30715
launch 30714
understanding 30713
Children 30712
violence 30711
failure 30710
sector 30709
Brigade 30708
wrapped 30707
fired 30706
sharp 30705
tiny 30704
developing 30703
expansion 30702
Free 30701
institutions 30700
technical 30699
Nothing 30698
otherwise 30697
Main 30696
inch 30695
Saturday 30694
wore 30693
Senior 30692
attached 30691
cheek 30690
representing 30689
Kansas 30688
##chi 30687
##kin 30686
actual 30685
advantage 30684
Dan 30683
Austria 30682
##dale 30681
hoped 30680
multi 30679
squad 30678
Norway 30677
streets 30676
1913 30675
Services 30674
hired 30673
grow 30672
pp 30671
wear 30670
painted 30669
Minnesota 30668
stuff 30667
Building 30666
54 30665
Philippines 30664
1900 30663
##ties 30662
educational 30661
Khan 30660
Magazine 30659
##port 30658
Cape 30657
signal 30656
Gordon 30655
sword 30654
Anderson 30653
cool 30652
engaged 30651
Commander 30650
images 30649
Upon 30648
tied 30647
Security 30646
cup 30645
rail 30644
Vietnam 30643
successfully 30642
##red 30641
Muslim 30640
gain 30639
bringing 30638
Native 30637
hers 30636
occurs 30635
negative 30634
Philip 30633
Kelly 30632
Colorado 30631
category 30630
##lan 30629
600 30628
Have 30627
supporting 30626
wet 30625
56 30624
stairs 30623
Grace 30622
observed 30621
##ung 30620
funds 30619
restaurant 30618
1911 30617
Jews 30616
##ments 30615
##che 30614
Jake 30613
Back 30612
53 30611
asks 30610
journalist 30609
accept 30608
bands 30607
bronze 30606
helping 30605
##ice 30604
decades 30603
mayor 30602
survived 30601
usual 30600
influenced 30599
Douglas 30598
Hey 30597
##izing 30596
surrounded 30595
retirement 30594
Temple 30593
derived 30592
Pope 30591
registered 30590
producing 30589
##ral 30588
structures 30587
Johnny 30586
contributed 30585
finishing 30584
buy 30583
specifically 30582
##king 30581
patients 30580
Jordan 30579
internal 30578
regarding 30577
Samuel 30576
Clark 30575
##q 30574
afternoon 30573
Finally 30572
scenes 30571
notice 30570
refers 30569
quietly 30568
threat 30567
Water 30566
Those 30565
Hamilton 30564
promise 30563
freedom 30562
Turkey 30561
breaking 30560
maintained 30559
device 30558
lap 30557
ultimately 30556
Champion 30555
Tim 30554
Bureau 30553
expressed 30552
investigation 30551
extremely 30550
capable 30549
qualified 30548
recognition 30547
items 30546
##up 30545
Indiana 30544
adult 30543
rain 30542
greatest 30541
architect 30540
Morgan 30539
dressed 30538
equal 30537
Antonio 30536
collected 30535
drove 30534
occur 30533
Grant 30532
graduate 30531
anger 30530
Sri 30529
worried 30528
standards 30527
##ore 30526
injured 30525
somewhere 30524
damn 30523
Singapore 30522
Jimmy 30521
pocket 30520
homes 30519
stock 30518
religion 30517
aware 30516
regarded 30515
Wisconsin 30514
##tra 30513
passes 30512
fresh 30511
##ea 30510
argued 30509
Ltd 30508
EP 30507
Diego 30506
importance 30505
Census 30504
incident 30503
Egypt 30502
Missouri 30501
domestic 30500
leads 30499
ceremony 30498
Early 30497
camera 30496
Father 30495
challenge 30494
Switzerland 30493
lands 30492
familiar 30491
hearing 30490
spend 30489
educated 30488
Tennessee 30487
Thank 30486
##ram 30485
Thus 30484
concern 30483
putting 30482
inches 30481
map 30480
classical 30479
Allen 30478
crazy 30477
valley 30476
Space 30475
softly 30474
##my 30473
pool 30472
worldwide 30471
climate 30470
experienced 30469
neighborhood 30468
scheduled 30467
neither 30466
fleet 30465
1908 30464
Girl 30463
##J 30462
Part 30461
engines 30460
locations 30459
darkness 30458
Revolution 30457
establishment 30456
lawyer 30455
objects 30454
apparently 30453
Queensland 30452
Entertainment 30451
bill 30450
mark 30449
Television 30448
##ong 30447
pale 30446
demand 30445
Hotel 30444
selection 30443
##rn 30442
##ino 30441
Labour 30440
Liberal 30439
burned 30438
Mom 30437
merged 30436
Arizona 30435
request 30434
##lia 30433
##light 30432
hole 30431
employees 30430
##ical 30429
incorporated 30428
95 30427
independence 30426
Walker 30425
covering 30424
joining 30423
##ica 30422
task 30421
papers 30420
backing 30419
sell 30418
biggest 30417
6th 30416
strike 30415
establish 30414
##ō 30413
gently 30412
59 30411
Orchestra 30410
Winter 30409
protein 30408
Juan 30407
locked 30406
dates 30405
Boy 30404
aren 30403
shooting 30402
Luke 30401
solid 30400
charged 30399
Prior 30398
resigned 30397
interior 30396
garden 30395
spoken 30394
improve 30393
wonder 30392
promote 30391
hidden 30390
##med 30389
combination 30388
Hollywood 30387
Swiss 30386
consider 30385
##ks 30384
Lincoln 30383
literary 30382
drawing 30381
Marine 30380
weapon 30379
Victor 30378
Trust 30377
Maryland 30376
properties 30375
##ara 30374
exhibition 30373
understood 30372
hung 30371
Tell 30370
installed 30369
loud 30368
fashion 30367
affected 30366
junior 30365
landing 30364
flowers 30363
##he 30362
Internet 30361
beach 30360
Heart 30359
tries 30358
Mayor 30357
programme 30356
800 30355
wins 30354
noise 30353
##ster 30352
##ory 30351
58 30350
contain 30349
fair 30348
delivered 30347
##ul 30346
wedding 30345
Square 30344
advance 30343
behavior 30342
Program 30341
Oregon 30340
##rk 30339
residence 30338
realize 30337
certainly 30336
hill 30335
Houston 30334
57 30333
indicated 30332
##water 30331
wounded 30330
Village 30329
massive 30328
Moore 30327
thousands 30326
personnel 30325
dating 30324
opera 30323
poetry 30322
##her 30321
causes 30320
feelings 30319
Frederick 30318
applications 30317
push 30316
approached 30315
foundation 30314
pleasure 30313
sale 30312
fly 30311
gotten 30310
northeast 30309
costs 30308
raise 30307
paintings 30306
##ney 30305
views 30304
horses 30303
formal 30302
Arab 30301
hockey 30300
typical 30299
representative 30298
rising 30297
##des 30296
clock 30295
stadium 30294
shifted 30293
Dad 30292
peak 30291
Fame 30290
vice 30289
disappeared 30288
users 30287
Way 30286
Naval 30285
prize 30284
hoping 30283
values 30282
evil 30281
Bell 30280
consisting 30279
##ón 30278
Regional 30277
##ics 30276
improved 30275
circle 30274
carefully 30273
broad 30272
##ini 30271
Fine 30270
maintain 30269
operate 30268
offering 30267
mention 30266
Death 30265
stupid 30264
Through 30263
Princess 30262
attend 30261
interests 30260
ruled 30259
somewhat 30258
wings 30257
roads 30256
grounds 30255
##ual 30254
Greece 30253
Champions 30252
facing 30251
hide 30250
voted 30249
require 30248
Dark 30247
Matthew 30246
credit 30245
sighed 30244
separated 30243
manner 30242
##ile 30241
Boys 30240
1905 30239
committed 30238
impossible 30237
lip 30236
candidates 30235
7th 30234
Bruce 30233
arranged 30232
Islamic 30231
courses 30230
criminal 30229
##ened 30228
smell 30227
##bed 30226
08 30225
consecutive 30224
##ening 30223
proper 30222
purchase 30221
weak 30220
Prix 30219
1906 30218
aside 30217
introduction 30216
Look 30215
##ku 30214
changing 30213
budget 30212
resistance 30211
factory 30210
Forces 30209
agency 30208
##tone 30207
northwest 30206
user 30205
1907 30204
stating 30203
##one 30202
sport 30201
Design 30200
environmental 30199
cards 30198
concluded 30197
Carl 30196
250 30195
accused 30194
##ology 30193
Girls 30192
sick 30191
intelligence 30190
Margaret 30189
responsibility 30188
Guard 30187
##tus 30186
17th 30185
sq 30184
goods 30183
1909 30182
hate 30181
##ek 30180
capture 30179
stores 30178
Gray 30177
comic 30176
Modern 30175
Silver 30174
Andy 30173
electronic 30172
wheel 30171
##ied 30170
Deputy 30169
##bs 30168
Czech 30167
zone 30166
choose 30165
constant 30164
reserve 30163
##lle 30162
Tokyo 30161
spirit 30160
sub 30159
degrees 30158
flew 30157
pattern 30156
compete 30155
Dance 30154
##ik 30153
secretary 30152
Imperial 30151
99 30150
reduce 30149
Hungarian 30148
confused 30147
##rin 30146
Pierre 30145
describes 30144
regularly 30143
Rachel 30142
85 30141
landed 30140
passengers 30139
##ise 30138
##sis 30137
historian 30136
meters 30135
Youth 30134
##ud 30133
participate 30132
##cing 30131
arrival 30130
tired 30129
Mother 30128
##gy 30127
jumped 30126
Kentucky 30125
faces 30124
feed 30123
Israeli 30122
Ocean 30121
##Q 30120
##án 30119
plus 30118
snow 30117
techniques 30116
plate 30115
sections 30114
falls 30113
jazz 30112
##ris 30111
tank 30110
loan 30109
repeated 30108
opinion 30107
##res 30106
unless 30105
rugby 30104
journal 30103
Lawrence 30102
moments 30101
shock 30100
distributed 30099
##ded 30098
adjacent 30097
Argentina 30096
crossing 30095
uncle 30094
##ric 30093
Detroit 30092
communication 30091
mental 30090
tomorrow 30089
session 30088
Emma 30087
Without 30086
##gen 30085
Miami 30084
charges 30083
Administration 30082
hits 30081
coat 30080
protected 30079
Cole 30078
invasion 30077
priest 30076
09 30075
Gary 30074
enjoyed 30073
plot 30072
measure 30071
bound 30070
friendly 30069
throw 30068
musician 30067
##lon 30066
##ins 30065
Age 30064
knife 30063
damaged 30062
birds 30061
driven 30060
lit 30059
ears 30058
breathing 30057
Arabic 30056
Jan 30055
faster 30054
Jonathan 30053
##gate 30052
Independent 30051
starred 30050
Harris 30049
teachers 30048
Alice 30047
sequence 30046
mph 30045
file 30044
translated 30043
decide 30042
determine 30041
Review 30040
documents 30039
sudden 30038
threatened 30037
##ft 30036
bear 30035
distinct 30034
decade 30033
burning 30032
##sky 30031
1930s 30030
replace 30029
begun 30028
extension 30027
##time 30026
1904 30025
equivalent 30024
accompanied 30023
Christopher 30022
Danish 30021
##ye 30020
Besides 30019
##more 30018
persons 30017
fallen 30016
Rural 30015
roughly 30014
saved 30013
willing 30012
ensure 30011
Belgium 30010
05 30009
musicians 30008
##ang 30007
giant 30006
Six 30005
Retrieved 30004
worst 30003
purposes 30002
##bly 30001
mountains 30000
seventh 29999
slipped 29998
brick 29997
07 29996
##py 29995
somehow 29994
Carter 29993
Iraq 29992
cousin 29991
favor 29990
islands 29989
journey 29988
FIFA 29987
contrast 29986
planet 29985
vs 29984
calm 29983
##ings 29982
concrete 29981
branches 29980
gray 29979
profit 29978
Russell 29977
##ae 29976
##ux 29975
##ens 29974
philosophy 29973
businesses 29972
talked 29971
parking 29970
##ming 29969
owners 29968
Place 29967
##tle 29966
agricultural 29965
Kate 29964
06 29963
southeast 29962
draft 29961
Eddie 29960
earliest 29959
forget 29958
Dallas 29957
Commonwealth 29956
edited 29955
66 29954
inner 29953
ed 29952
operates 29951
16th 29950
Harvard 29949
assistance 29948
##si 29947
designs 29946
Take 29945
bathroom 29944
indicate 29943
CEO 29942
Command 29941
Louisiana 29940
1902 29939
Dublin 29938
Books 29937
1901 29936
tropical 29935
1903 29934
##tors 29933
Places 29932
tie 29931
progress 29930
forming 29929
solution 29928
62 29927
letting 29926
##ery 29925
studying 29924
##jo 29923
duties 29922
Baseball 29921
taste 29920
Reserve 29919
##ru 29918
Ann 29917
##gh 29916
visible 29915
##vi 29914
notably 29913
link 29912
NCAA 29911
southwest 29910
Never 29909
storage 29908
mobile 29907
writers 29906
favorite 29905
Pro 29904
pages 29903
truly 29902
count 29901
##tta 29900
string 29899
kid 29898
98 29897
Ross 29896
row 29895
##idae 29894
Kennedy 29893
##tan 29892
Hockey 29891
hip 29890
waist 29889
grandfather 29888
listen 29887
##ho 29886
feels 29885
busy 29884
72 29883
stream 29882
obvious 29881
cycle 29880
shaking 29879
Knight 29878
##ren 29877
Carlos 29876
painter 29875
trail 29874
web 29873
linked 29872
04 29871
Palace 29870
existed 29869
##ira 29868
responded 29867
closing 29866
End 29865
examples 29864
Marshall 29863
weekend 29862
jaw 29861
Denmark 29860
lady 29859
township 29858
medium 29857
chin 29856
Story 29855
option 29854
fifteen 29853
Moon 29852
represents 29851
makeup 29850
investment 29849
jump 29848
childhood 29847
Oklahoma 29846
roll 29845
normally 29844
Ten 29843
Operation 29842
Graham 29841
Seattle 29840
Atlanta 29839
paused 29838
promised 29837
rejected 29836
treated 29835
returns 29834
flag 29833
##ita 29832
Hungary 29831
danger 29830
glad 29829
movements 29828
visual 29827
subjects 29826
credited 29825
soldier 29824
Norman 29823
ill 29822
translation 29821
José 29820
Quebec 29819
medicine 29818
warning 29817
theater 29816
praised 29815
municipal 29814
01 29813
commune 29812
churches 29811
acid 29810
folk 29809
8th 29808
testing 29807
add 29806
survive 29805
Sound 29804
devices 29803
residential 29802
severe 29801
presidential 29800
Mississippi 29799
Austin 29798
Perhaps 29797
Charlotte 29796
hanging 29795
Montreal 29794
grin 29793
##ten 29792
racial 29791
partnership 29790
shoot 29789
shift 29788
##nie 29787
Les 29786
downtown 29785
Brothers 29784
Garden 29783
matters 29782
restored 29781
mirror 29780
forever 29779
winners 29778
rapidly 29777
poverty 29776
##ible 29775
Until 29774
DC 29773
faith 29772
hundreds 29771
Real 29770
Ukraine 29769
Nelson 29768
balance 29767
Adams 29766
contest 29765
relative 29764
ethnic 29763
Edinburgh 29762
composition 29761
##nts 29760
emergency 29759
##van 29758
marine 29757
reputation 29756
Down 29755
pack 29754
12th 29753
Communist 29752
Mountains 29751
pro 29750
stages 29749
measures 29748
##ld 29747
ABC 29746
Li 29745
victims 29744
benefit 29743
Iowa 29742
Broadway 29741
gathered 29740
rating 29739
Defense 29738
classic 29737
##ily 29736
ceiling 29735
##ions 29734
snapped 29733
Everything 29732
constituency 29731
Franklin 29730
Thompson 29729
Stewart 29728
entering 29727
Judge 29726
forth 29725
##sk 29724
wanting 29723
smiling 29722
moves 29721
tunnel 29720
premiered 29719
grass 29718
unusual 29717
Ukrainian 29716
bird 29715
Friday 29714
tail 29713
Portugal 29712
coal 29711
element 29710
Fred 29709
guards 29708
Senator 29707
collaboration 29706
beauty 29705
Wood 29704
chemical 29703
beer 29702
justice 29701
signs 29700
##Z 29699
sees 29698
##zi 29697
Puerto 29696
##zed 29695
96 29694
smooth 29693
Bowl 29692
gift 29691
limit 29690
97 29689
heading 29688
Source 29687
wake 29686
requires 29685
Ed 29684
Constitution 29683
factor 29682
Lane 29681
factors 29680
adding 29679
Note 29678
cleared 29677
pictures 29676
pink 29675
##ola 29674
Kent 29673
Local 29672
Singh 29671
moth 29670
Ty 29669
##ture 29668
courts 29667
Seven 29666
temporary 29665
involving 29664
Vienna 29663
emerged 29662
fishing 29661
agree 29660
defensive 29659
stuck 29658
secure 29657
Tamil 29656
##ick 29655
bottle 29654
03 29653
Player 29652
instruments 29651
Spring 29650
patient 29649
flesh 29648
contributions 29647
cry 29646
Malaysia 29645
120 29644
Global 29643
da 29642
Alabama 29641
Within 29640
##work 29639
debuted 29638
expect 29637
Cleveland 29636
concerns 29635
retained 29634
horror 29633
10th 29632
spending 29631
Peace 29630
Transport 29629
grand 29628
Crown 29627
instance 29626
institution 29625
acted 29624
Hills 29623
mounted 29622
Campbell 29621
shouldn 29620
1898 29619
##ably 29618
chamber 29617
soil 29616
88 29615
Ethan 29614
sand 29613
cheeks 29612
##gi 29611
marry 29610
61 29609
weekly 29608
classification 29607
DNA 29606
Elementary 29605
Roy 29604
definitely 29603
Soon 29602
Rights 29601
gate 29600
suggests 29599
aspects 29598
imagine 29597
golden 29596
beating 29595
Studios 29594
Warren 29593
differences 29592
significantly 29591
glance 29590
occasionally 29589
##od 29588
clothing 29587
Assistant 29586
depth 29585
sending 29584
possibility 29583
mode 29582
prisoners 29581
requirements 29580
daughters 29579
dated 29578
Representatives 29577
prove 29576
guilty 29575
interesting 29574
smoke 29573
cricket 29572
93 29571
##ates 29570
rescue 29569
Connecticut 29568
underground 29567
Opera 29566
13th 29565
reign 29564
##ski 29563
thanks 29562
leather 29561
equipped 29560
routes 29559
fan 29558
##ans 29557
script 29556
Wright 29555
bishop 29554
Welsh 29553
jobs 29552
faculty 29551
eleven 29550
Railroad 29549
appearing 29548
anniversary 29547
Upper 29546
##down 29545
anywhere 29544
Rugby 29543
Metropolitan 29542
Meanwhile 29541
Nicholas 29540
champions 29539
forehead 29538
mining 29537
drinking 29536
76 29535
Jerry 29534
membership 29533
Brazilian 29532
Wild 29531
Rio 29530
scheme 29529
Unlike 29528
strongly 29527
##bility 29526
fill 29525
##rian 29524
easier 29523
MP 29522
Hell 29521
##sha 29520
Stanley 29519
banks 29518
Baron 29517
##ique 29516
Robinson 29515
67 29514
Gabriel 29513
Austrian 29512
Wayne 29511
exposed 29510
##wan 29509
Alfred 29508
1899 29507
manage 29506
mix 29505
visitors 29504
eating 29503
##rate 29502
Sean 29501
commission 29500
Cemetery 29499
policies 29498
Camp 29497
parallel 29496
traveled 29495
guitarist 29494
02 29493
supplies 29492
couples 29491
poem 29490
blocks 29489
Rick 29488
Training 29487
Energy 29486
achieve 29485
appointment 29484
Wing 29483
Jamie 29482
63 29481
novels 29480
##em 29479
1890 29478
songwriter 29477
Base 29476
Jay 29475
##gar 29474
naval 29473
scared 29472
miss 29471
labor 29470
technique 29469
crisis 29468
Additionally 29467
backed 29466
destroy 29465
seriously 29464
tools 29463
tennis 29462
91 29461
god 29460
##ington 29459
continuing 29458
steam 29457
obviously 29456
Bobby 29455
adapted 29454
fifty 29453
enjoy 29452
Jacob 29451
publishing 29450
column 29449
##ular 29448
Baltimore 29447
Donald 29446
Liverpool 29445
92 29444
drugs 29443
movies 29442
##ock 29441
Heritage 29440
##je 29439
##istic 29438
vocal 29437
strategy 29436
gene 29435
advice 29434
##bi 29433
Ottoman 29432
riding 29431
##side 29430
Agency 29429
Indonesia 29428
11th 29427
laughing 29426
sleeping 29425
und 29424
muttered 29423
listening 29422
deck 29421
tip 29420
77 29419
ownership 29418
grey 29417
Claire 29416
deeply 29415
provincial 29414
popularity 29413
Cooper 29412
##á 29411
Emily 29410
##sed 29409
designer 29408
Murray 29407
describe 29406
Danny 29405
Around 29404
Parker 29403
##dae 29402
68 29401
rates 29400
suffering 29399
considerable 29398
78 29397
nervous 29396
powered 29395
tons 29394
circumstances 29393
wished 29392
belonged 29391
Pittsburgh 29390
flows 29389
9th 29388
##use 29387
belt 29386
81 29385
useful 29384
15th 29383
context 29382
List 29381
Dead 29380
Iron 29379
seek 29378
Season 29377
worn 29376
frequency 29375
legislation 29374
replacement 29373
memories 29372
Tournament 29371
Again 29370
Barry 29369
organisation 29368
copy 29367
Gulf 29366
waters 29365
meets 29364
struggle 29363
Oliver 29362
1895 29361
Susan 29360
protest 29359
kick 29358
Alliance 29357
components 29356
1896 29355
Tower 29354
Windows 29353
demanded 29352
regiment 29351
sentence 29350
Woman 29349
Logan 29348
Referee 29347
hosts 29346
debate 29345
knee 29344
Blood 29343
##oo 29342
universities 29341
practices 29340
Ward 29339
ranking 29338
correct 29337
happening 29336
Vincent 29335
attracted 29334
classified 29333
##stic 29332
processes 29331
immediate 29330
waste 29329
increasingly 29328
Helen 29327
##po 29326
Lucas 29325
Phil 29324
organ 29323
1897 29322
tea 29321
suicide 29320
actors 29319
lb 29318
crash 29317
approval 29316
waves 29315
##ered 29314
hated 29313
grip 29312
700 29311
amongst 29310
69 29309
74 29308
hunting 29307
dying 29306
lasted 29305
illegal 29304
##rum 29303
stare 29302
defeating 29301
##gs 29300
shrugged 29299
°C 29298
Jon 29297
Count 29296
Orleans 29295
94 29294
affairs 29293
formally 29292
##and 29291
##ves 29290
criticized 29289
Disney 29288
Vol 29287
successor 29286
tests 29285
scholars 29284
palace 29283
Would 29282
celebrated 29281
rounds 29280
grant 29279
Schools 29278
Such 29277
commanded 29276
demon 29275
Romania 29274
##all 29273
Karl 29272
71 29271
##yn 29270
84 29269
Daily 29268
totally 29267
Medicine 29266
fruit 29265
Die 29264
upset 29263
Lower 29262
Conservative 29261
14th 29260
Mitchell 29259
escaped 29258
shoes 29257
Morris 29256
##tz 29255
queen 29254
harder 29253
prime 29252
Thanks 29251
indeed 29250
Sky 29249
authors 29248
rocks 29247
definition 29246
Nazi 29245
accounts 29244
printed 29243
experiences 29242
##ters 29241
divisions 29240
Cathedral 29239
denied 29238
depending 29237
Express 29236
##let 29235
73 29234
appeal 29233
loose 29232
colors 29231
filed 29230
##isation 29229
gender 29228
##ew 29227
throne 29226
forests 29225
Finland 29224
domain 29223
boats 29222
Baker 29221
squadron 29220
shore 29219
remove 29218
##ification 29217
careful 29216
wound 29215
railroad 29214
82 29213
seeking 29212
agents 29211
##ved 29210
Blues 29209
##off 29208
customers 29207
ignored 29206
net 29205
##ction 29204
hiding 29203
Originally 29202
declined 29201
##ess 29200
franchise 29199
eliminated 29198
NBA 29197
merely 29196
pure 29195
appropriate 29194
visiting 29193
forty 29192
markets 29191
offensive 29190
coverage 29189
cave 29188
##nia 29187
spell 29186
##lar 29185
Benjamin 29184
##ire 29183
Convention 29182
filmed 29181
Trade 29180
##sy 29179
##ct 29178
Having 29177
palm 29176
1889 29175
Evans 29174
intense 29173
plastic 29172
Julia 29171
document 29170
jeans 29169
vessel 29168
SR 29167
##fully 29166
proposal 29165
Birmingham 29164
le 29163
##ative 29162
assembly 29161
89 29160
fund 29159
lock 29158
1893 29157
AD 29156
meetings 29155
occupation 29154
modified 29153
Years 29152
odd 29151
aimed 29150
reform 29149
Mission 29148
Works 29147
shake 29146
cat 29145
exception 29144
convinced 29143
executed 29142
pushing 29141
dollars 29140
replacing 29139
soccer 29138
manufacturing 29137
##ros 29136
expensive 29135
kicked 29134
minimum 29133
Josh 29132
coastal 29131
Chase 29130
ha 29129
Thailand 29128
publications 29127
deputy 29126
Sometimes 29125
Angel 29124
effectively 29123
##illa 29122
criticism 29121
conduct 29120
Serbian 29119
landscape 29118
NY 29117
absence 29116
passage 29115
##ula 29114
Blake 29113
Indians 29112
1892 29111
admit 29110
Trophy 29109
##ball 29108
Next 29107
##rated 29106
##ians 29105
charts 29104
kW 29103
orchestra 29102
79 29101
heritage 29100
1894 29099
rough 29098
exists 29097
boundary 29096
Bible 29095
Legislative 29094
moon 29093
medieval 29092
##over 29091
cutting 29090
print 29089
##ett 29088
birthday 29087
##hood 29086
destruction 29085
Julian 29084
injuries 29083
influential 29082
sisters 29081
raising 29080
statue 29079
colour 29078
dancing 29077
characteristics 29076
orange 29075
##ok 29074
##aries 29073
Ken 29072
colonial 29071
twin 29070
Larry 29069
surviving 29068
##shi 29067
Barbara 29066
personality 29065
entertainment 29064
assault 29063
##ering 29062
talent 29061
happens 29060
license 29059
86 29058
couch 29057
Century 29056
soundtrack 29055
shower 29054
swimming 29053
cash 29052
Staff 29051
bent 29050
1885 29049
bay 29048
lunch 29047
##lus 29046
dozen 29045
vessels 29044
CBS 29043
greatly 29042
critic 29041
Test 29040
symbol 29039
panel 29038
shell 29037
output 29036
reaches 29035
87 29034
Front 29033
motor 29032
ocean 29031
##era 29030
##ala 29029
maintenance 29028
violent 29027
scent 29026
Limited 29025
Las 29024
Hope 29023
Theater 29022
Which 29021
survey 29020
Robin 29019
recordings 29018
compilation 29017
##ward 29016
bomb 29015
insurance 29014
Authority 29013
sponsored 29012
satellite 29011
Jazz 29010
refer 29009
stronger 29008
blow 29007
whilst 29006
Wrestling 29005
suggest 29004
##rie 29003
climbed 29002
##els 29001
voices 29000
shopping 28999
1891 28998
Neil 28997
discovery 28996
##vo 28995
##ations 28994
burst 28993
Baby 28992
peaked 28991
Brooklyn 28990
knocked 28989
lift 28988
##try 28987
false 28986
nations 28985
Hugh 28984
Catherine 28983
preserved 28982
distinguished 28981
terminal 28980
resolution 28979
ratio 28978
pants 28977
cited 28976
competitions 28975
completion 28974
DJ 28973
bone 28972
uniform 28971
schedule 28970
shouted 28969
83 28968
1920s 28967
rarely 28966
Basketball 28965
Taiwan 28964
artistic 28963
bare 28962
vampires 28961
arrest 28960
Utah 28959
Marcus 28958
assist 28957
gradually 28956
qualifying 28955
Victorian 28954
vast 28953
rival 28952
Warner 28951
Terry 28950
Economic 28949
##cia 28948
losses 28947
boss 28946
versus 28945
audio 28944
runner 28943
apply 28942
surgery 28941
Play 28940
twisted 28939
comfortable 28938
##cs 28937
Everyone 28936
guests 28935
##lt 28934
Harrison 28933
UEFA 28932
lowered 28931
occasions 28930
##lly 28929
##cher 28928
chapter 28927
youngest 28926
eighth 28925
Culture 28924
##room 28923
##stone 28922
1888 28921
Songs 28920
Seth 28919
Digital 28918
involvement 28917
expedition 28916
relationships 28915
signing 28914
1000 28913
fault 28912
annually 28911
circuit 28910
afterwards 28909
meat 28908
creature 28907
##ou 28906
cable 28905
Bush 28904
##net 28903
Hispanic 28902
rapid 28901
gonna 28900
figured 28899
extent 28898
considering 28897
cried 28896
##tin 28895
sigh 28894
dynasty 28893
##ration 28892
cabinet 28891
Richmond 28890
stable 28889
##zo 28888
1864 28887
Admiral 28886
Unit 28885
occasion 28884
shares 28883
badly 28882
longest 28881
##ify 28880
Connor 28879
extreme 28878
wondering 28877
girlfriend 28876
Studio 28875
##tions 28874
1865 28873
tribe 28872
exact 28871
muscles 28870
hat 28869
Luis 28868
Orthodox 28867
decisions 28866
amateur 28865
description 28864
##lis 28863
hips 28862
kingdom 28861
##ute 28860
Portland 28859
whereas 28858
Bachelor 28857
outer 28856
discussion 28855
partly 28854
Arkansas 28853
1880 28852
dreams 28851
perfectly 28850
Lloyd 28849
##bridge 28848
asleep 28847
##tti 28846
Greg 28845
permission 28844
trading 28843
pitch 28842
mill 28841
Stage 28840
liquid 28839
Keith 28838
##tal 28837
wolf 28836
processing 28835
stick 28834
Jerusalem 28833
profile 28832
rushed 28831
spiritual 28830
argument 28829
Ice 28828
Guy 28827
till 28826
Delhi 28825
roots 28824
Section 28823
missions 28822
Glasgow 28821
penalty 28820
NBC 28819
encouraged 28818
identify 28817
keyboards 28816
##zing 28815
##ston 28814
disc 28813
plain 28812
informed 28811
Bernard 28810
thinks 28809
fled 28808
Justin 28807
##day 28806
newspapers 28805
##wick 28804
Ralph 28803
##zer 28802
unlike 28801
Stars 28800
artillery 28799
##ified 28798
recovered 28797
arrangement 28796
searching 28795
##pers 28794
##tory 28793
##rus 28792
deaths 28791
Egyptian 28790
diameter 28789
##í 28788
marketing 28787
corporate 28786
teach 28785
marks 28784
Turner 28783
staying 28782
hallway 28781
Sebastian 28780
chapel 28779
naked 28778
mistake 28777
possession 28776
1887 28775
dominated 28774
jacket 28773
creative 28772
Fellow 28771
Falls 28770
Defence 28769
suspended 28768
employment 28767
##rry 28766
Hebrew 28765
Hudson 28764
Week 28763
Wars 28762
recognize 28761
Natural 28760
controversial 28759
Tommy 28758
thank 28757
Athletic 28756
benefits 28755
decline 28754
intention 28753
##ets 28752
Lost 28751
Wall 28750
participation 28749
elevation 28748
supports 28747
parliament 28746
1861 28745
concentration 28744
Movement 28743
##IS 28742
competing 28741
stops 28740
behalf 28739
##mm 28738
limits 28737
funded 28736
discuss 28735
Collins 28734
departure 28733
obtain 28732
woods 28731
latest 28730
universe 28729
alcohol 28728
Laura 28727
rush 28726
blade 28725
funny 28724
Dennis 28723
forgotten 28722
Amy 28721
Symphony 28720
apparent 28719
graduating 28718
1862 28717
Rob 28716
Grey 28715
collections 28714
Mason 28713
emotions 28712
##ugh 28711
literally 28710
Any 28709
counties 28708
1863 28707
nomination 28706
fighter 28705
habitat 28704
respond 28703
external 28702
Capital 28701
exit 28700
Video 28699
carbon 28698
sharing 28697
Bad 28696
opportunities 28695
Perry 28694
photo 28693
##mus 28692
Orange 28691
posted 28690
remainder 28689
transportation 28688
portrayed 28687
Labor 28686
recommended 28685
percussion 28684
rated 28683
Grade 28682
rivers 28681
partially 28680
suspected 28679
strip 28678
adults 28677
button 28676
struggled 28675
intersection 28674
Canal 28673
##ability 28672
poems 28671
claiming 28670
Madrid 28669
1886 28668
Together 28667
##our 28666
Much 28665
Vancouver 28664
instrument 28663
instrumental 28662
1870 28661
mad 28660
angle 28659
Control 28658
Phoenix 28657
Leo 28656
Communications 28655
mail 28654
##ette 28653
##ev 28652
preferred 28651
adaptation 28650
alleged 28649
discussed 28648
deeper 28647
##ane 28646
Yet 28645
Monday 28644
volumes 28643
thrown 28642
Zane 28641
##logy 28640
displayed 28639
rolling 28638
dogs 28637
Along 28636
Todd 28635
##ivity 28634
withdrew 28633
representation 28632
belief 28631
##sia 28630
crown 28629
Late 28628
Short 28627
hardly 28626
grinned 28625
romantic 28624
Pete 28623
##ken 28622
networks 28621
enemies 28620
Colin 28619
Eventually 28618
Side 28617
donated 28616
##su 28615
steady 28614
grab 28613
guide 28612
Finnish 28611
Milan 28610
pregnant 28609
controversy 28608
reminded 28607
1884 28606
Stuart 28605
##bach 28604
##ade 28603
Race 28602
Belgian 28601
LP 28600
Production 28599
Zone 28598
lieutenant 28597
infantry 28596
Child 28595
confusion 28594
sang 28593
resident 28592
##ez 28591
victim 28590
1881 28589
channels 28588
Ron 28587
businessman 28586
##gle 28585
Dick 28584
colony 28583
pace 28582
producers 28581
##ese 28580
agencies 28579
Craig 28578
Lucy 28577
Very 28576
centers 28575
Yorkshire 28574
photography 28573
##ched 28572
Album 28571
championships 28570
Metro 28569
substantial 28568
Standard 28567
terrible 28566
directors 28565
contribution 28564
advertising 28563
emotional 28562
##its 28561
layer 28560
segment 28559
sir 28558
folded 28557
Roberts 28556
ceased 28555
Hampshire 28554
##ray 28553
detailed 28552
partners 28551
m² 28550
##pt 28549
Beth 28548
genre 28547
commented 28546
generated 28545
remote 28544
aim 28543
Hans 28542
credits 28541
concerts 28540
periods 28539
breakfast 28538
gay 28537
shadow 28536
defence 28535
Too 28534
Had 28533
transition 28532
Afghanistan 28531
##book 28530
eggs 28529
defend 28528
##lli 28527
writes 28526
Systems 28525
bones 28524
mess 28523
seed 28522
scientists 28521
Shortly 28520
Romanian 28519
##zy 28518
Freedom 28517
muscle 28516
hero 28515
parent 28514
agriculture 28513
checked 28512
Islam 28511
Bristol 28510
Freyja 28509
Arena 28508
cabin 28507
Germans 28506
electricity 28505
ranks 28504
viewed 28503
medals 28502
Wolf 28501
associate 28500
Madison 28499
Sorry 28498
fort 28497
Chile 28496
detail 28495
widespread 28494
attorney 28493
boyfriend 28492
##nan 28491
Students 28490
Spencer 28489
##ig 28488
bite 28487
Maine 28486
demolished 28485
Lisa 28484
erected 28483
Someone 28482
operational 28481
Commissioner 28480
NHL 28479
Coach 28478
Bar 28477
forcing 28476
Dream 28475
Rico 28474
cargo 28473
Murphy 28472
##fish 28471
##ase 28470
distant 28469
##master 28468
##ora 28467
Organization 28466
doorway 28465
Steven 28464
traded 28463
electrical 28462
frequent 28461
##wn 28460
Branch 28459
Sure 28458
1882 28457
placing 28456
Manhattan 28455
attending 28454
attributed 28453
excellent 28452
pounds 28451
ruling 28450
principles 28449
component 28448
Mediterranean 28447
Vegas 28446
machines 28445
percentage 28444
infrastructure 28443
throwing 28442
affiliated 28441
Kings 28440
secured 28439
Caribbean 28438
Track 28437
Ted 28436
honour 28435
opponent 28434
Virgin 28433
Construction 28432
grave 28431
produces 28430
Challenge 28429
stretched 28428
paying 28427
murmured 28426
##ata 28425
integrated 28424
waved 28423
Nathan 28422
##ator 28421
transmission 28420
videos 28419
##yan 28418
##hu 28417
Nova 28416
descent 28415
AM 28414
Harold 28413
conservative 28412
Therefore 28411
venue 28410
competitive 28409
##ui 28408
conclusion 28407
funeral 28406
confidence 28405
releases 28404
scholar 28403
##sson 28402
Treaty 28401
stress 28400
mood 28399
##sm 28398
Mac 28397
residing 28396
Action 28395
Fund 28394
##ship 28393
animated 28392
fitted 28391
##kar 28390
defending 28389
voting 28388
tend 28387
##berry 28386
answers 28385
believes 28384
##ci 28383
helps 28382
Aaron 28381
##tis 28380
themes 28379
##lay 28378
populations 28377
Players 28376
stroke 28375
Trinity 28374
electoral 28373
paint 28372
abroad 28371
charity 28370
keys 28369
Fair 28368
##pes 28367
interrupted 28366
participants 28365
murdered 28364
Days 28363
supporters 28362
##ab 28361
expert 28360
borders 28359
mate 28358
##llo 28357
solar 28356
architectural 28355
tension 28354
##bling 28353
Parish 28352
tape 28351
operator 28350
Cultural 28349
Clinton 28348
indicates 28347
publisher 28346
ordinary 28345
sugar 28344
arrive 28343
rifle 28342
acoustic 28341
##uring 28340
assets 28339
##shire 28338
SS 28337
sufficient 28336
options 28335
HMS 28334
Classic 28333
bars 28332
rebuilt 28331
governments 28330
Beijing 28329
reporter 28328
screamed 28327
Abbey 28326
crying 28325
mechanical 28324
instantly 28323
communications 28322
Political 28321
cemetery 28320
Cameron 28319
Stop 28318
representatives 28317
USS 28316
texts 28315
mathematics 28314
innings 28313
civilian 28312
Serbia 28311
##hill 28310
practical 28309
patterns 28308
dust 28307
Faculty 28306
debt 28305
##end 28304
##cus 28303
junction 28302
suppose 28301
experimental 28300
Computer 28299
Food 28298
wrist 28297
abuse 28296
dealing 28295
bigger 28294
cap 28293
principle 28292
##pin 28291
Muhammad 28290
Fleet 28289
Collection 28288
attempting 28287
dismissed 28286
##burn 28285
regime 28284
Herbert 28283
##ua 28282
shadows 28281
1883 28280
Eve 28279
Lanka 28278
1878 28277
Performance 28276
fictional 28275
##lock 28274
Noah 28273
Run 28272
Voivodeship 28271
exercise 28270
broadcasting 28269
##fer 28268
RAF 28267
Magic 28266
Bangladesh 28265
suitable 28264
##low 28263
##del 28262
styles 28261
toured 28260
Code 28259
identical 28258
links 28257
insisted 28256
110 28255
flash 28254
Model 28253
slave 28252
Derek 28251
Rev 28250
fairly 28249
Greater 28248
sole 28247
##lands 28246
connecting 28245
zero 28244
bench 28243
##ome 28242
switched 28241
Fall 28240
Owen 28239
yours 28238
Electric 28237
shocked 28236
convention 28235
##bra 28234
climb 28233
memorial 28232
swept 28231
Racing 28230
decides 28229
belong 28228
##nk 28227
parliamentary 28226
##und 28225
ages 28224
proof 28223
##dan 28222
delivery 28221
1860 28220
##ów 28219
sad 28218
publicly 28217
leaning 28216
Archbishop 28215
dirt 28214
##ose 28213
categories 28212
1876 28211
burn 28210
##bing 28209
requested 28208
Guinea 28207
Historical 28206
rhythm 28205
relation 28204
##heim 28203
ye 28202
pursue 28201
merchant 28200
##mes 28199
lists 28198
continuous 28197
frowned 28196
colored 28195
tool 28194
gods 28193
involves 28192
Duncan 28191
photographs 28190
Cricket 28189
slight 28188
Gregory 28187
atmosphere 28186
wider 28185
Cook 28184
##tar 28183
essential 28182
Being 28181
FA 28180
emperor 28179
wealthy 28178
nights 28177
##bar 28176
licensed 28175
Hawaii 28174
viewers 28173
Language 28172
load 28171
nearest 28170
milk 28169
kilometers 28168
platforms 28167
##ys 28166
territories 28165
Rogers 28164
sheet 28163
Rangers 28162
contested 28161
##lation 28160
isolated 28159
assisted 28158
swallowed 28157
Small 28156
Contemporary 28155
Technical 28154
Edwards 28153
express 28152
Volume 28151
endemic 28150
##ei 28149
tightly 28148
Whatever 28147
indigenous 28146
Colombia 28145
##ulation 28144
hp 28143
characterized 28142
##ida 28141
Nigeria 28140
Professional 28139
duo 28138
Soccer 28137
slaves 28136
Farm 28135
smart 28134
Attorney 28133
Attendance 28132
Common 28131
salt 28130
##vin 28129
tribes 28128
nod 28127
sentenced 28126
bid 28125
sample 28124
Drive 28123
switch 28122
instant 28121
21st 28120
Cuba 28119
drunk 28118
Alaska 28117
proud 28116
awareness 28115
hitting 28114
sessions 28113
Thai 28112
locally 28111
elsewhere 28110
Dragon 28109
gentle 28108
touching 28107
##lee 28106
Springs 28105
Universal 28104
Latino 28103
spin 28102
1871 28101
Chart 28100
recalled 28099
Type 28098
pointing 28097
##ii 28096
lowest 28095
##ser 28094
grandmother 28093
Adelaide 28092
Jacques 28091
spotted 28090
Buffalo 28089
restoration 28088
Son 28087
Joan 28086
farmers 28085
Lily 28084
1879 28083
lucky 28082
##dal 28081
luck 28080
eldest 28079
##rant 28078
Market 28077
drummer 28076
deployed 28075
warned 28074
prince 28073
sing 28072
amazing 28071
sailed 28070
##oon 28069
1875 28068
Primary 28067
traveling 28066
Masters 28065
Sara 28064
cattle 28063
Trail 28062
gang 28061
Further 28060
desert 28059
relocated 28058
##tch 28057
##ord 28056
Flight 28055
illness 28054
Munich 28053
ninth 28052
repair 28051
Singles 28050
##lated 28049
Tyler 28048
tossed 28047
boots 28046
Work 28045
sized 28044
earning 28043
shoved 28042
magazines 28041
housed 28040
dam 28039
researchers 28038
Former 28037
spun 28036
premiere 28035
spaces 28034
organised 28033
wealth 28032
crimes 28031
devoted 28030
stones 28029
Urban 28028
automatic 28027
hop 28026
affect 28025
outstanding 28024
tanks 28023
mechanism 28022
Muslims 28021
Ms 28020
shots 28019
argue 28018
Jeremy 28017
connections 28016
Armenian 28015
increases 28014
rubbed 28013
1867 28012
retail 28011
gear 28010
Pan 28009
bonus 28008
jurisdiction 28007
weird 28006
concerning 28005
whisper 28004
##gal 28003
Microsoft 28002
tenure 28001
hills 28000
www 27999
Gmina 27998
porch 27997
files 27996
reportedly 27995
venture 27994
Storm 27993
##ence 27992
Nature 27991
killer 27990
panic 27989
fate 27988
Secret 27987
Wang 27986
scream 27985
drivers 27984
belongs 27983
Chamber 27982
clan 27981
monument 27980
mixing 27979
Peru 27978
bet 27977
Riley 27976
Friends 27975
Isaac 27974
submarine 27973
1877 27972
130 27971
judges 27970
harm 27969
ranging 27968
affair 27967
prepare 27966
pupils 27965
householder 27964
Policy 27963
decorated 27962
Nation 27961
slammed 27960
activist 27959
implemented 27958
Room 27957
qualify 27956
Publishing 27955
establishing 27954
Baptist 27953
touring 27952
subsidiary 27951
##nal 27950
legend 27949
1872 27948
laughter 27947
PC 27946
Athens 27945
settlers 27944
ties 27943
dual 27942
dear 27941
Draft 27940
strategic 27939
Ivan 27938
reveal 27937
closest 27936
dominant 27935
Ah 27934
##ult 27933
Denver 27932
bond 27931
boundaries 27930
drafted 27929
tables 27928
##TV 27927
eyed 27926
Edition 27925
##ena 27924
1868 27923
belonging 27922
1874 27921
Industrial 27920
cream 27919
Ridge 27918
Hindu 27917
scholarship 27916
Ma 27915
opens 27914
initiated 27913
##ith 27912
yelled 27911
compound 27910
random 27909
Throughout 27908
grades 27907
physics 27906
sank 27905
grows 27904
exclusively 27903
settle 27902
Saints 27901
brings 27900
Amsterdam 27899
Make 27898
Hart 27897
walks 27896
battery 27895
violin 27894
##born 27893
explanation 27892
##ware 27891
1873 27890
##har 27889
provinces 27888
thrust 27887
exclusive 27886
sculpture 27885
shops 27884
##fire 27883
VI 27882
constitution 27881
Barcelona 27880
monster 27879
Devon 27878
Jefferson 27877
Sullivan 27876
bow 27875
##din 27874
desperate 27873
##ć 27872
Julie 27871
##mon 27870
##ising 27869
terminus 27868
Jesse 27867
abilities 27866
golf 27865
##ple 27864
##via 27863
##away 27862
Raymond 27861
measured 27860
jury 27859
firing 27858
revenue 27857
suburb 27856
Bulgarian 27855
1866 27854
##cha 27853
timber 27852
Things 27851
##weight 27850
Morning 27849
spots 27848
Alberta 27847
Data 27846
explains 27845
Kyle 27844
friendship 27843
raw 27842
tube 27841
demonstrated 27840
aboard 27839
immigrants 27838
reply 27837
breathe 27836
Manager 27835
ease 27834
##ban 27833
##dia 27832
Diocese 27831
##vy 27830
##ía 27829
pit 27828
ongoing 27827
##lie 27826
Gilbert 27825
Costa 27824
1940s 27823
Report 27822
voters 27821
cloud 27820
traditions 27819
##MS 27818
gallery 27817
Jennifer 27816
swung 27815
Broadcasting 27814
Does 27813
diverse 27812
reveals 27811
arriving 27810
initiative 27809
##ani 27808
Give 27807
Allied 27806
Pat 27805
Outstanding 27804
monastery 27803
blind 27802
Currently 27801
##war 27800
bloody 27799
stopping 27798
focuses 27797
managing 27796
Florence 27795
Harvey 27794
creatures 27793
900 27792
breast 27791
internet 27790
Artillery 27789
purple 27788
##mate 27787
alliance 27786
excited 27785
fee 27784
Brisbane 27783
lifetime 27782
Private 27781
##aw 27780
##nis 27779
##gue 27778
##ika 27777
phrase 27776
regulations 27775
reflected 27774
manufactured 27773
conventional 27772
pleased 27771
client 27770
##ix 27769
##ncy 27768
Pedro 27767
reduction 27766
##con 27765
welcome 27764
jail 27763
comfort 27762
Iranian 27761
Norfolk 27760
Dakota 27759
##tein 27758
evolution 27757
everywhere 27756
Initially 27755
sensitive 27754
Olivia 27753
Oscar 27752
implementation 27751
sits 27750
stolen 27749
demands 27748
slide 27747
grandson 27746
##ich 27745
merger 27744
##mic 27743
Spirit 27742
##° 27741
ticket 27740
root 27739
difficulty 27738
Nevada 27737
##als 27736
lined 27735
Dylan 27734
Original 27733
Call 27732
biological 27731
EU 27730
dramatic 27729
##hn 27728
Operations 27727
treaty 27726
gap 27725
##list 27724
Am 27723
Romanized 27722
moral 27721
Butler 27720
perspective 27719
Furthermore 27718
Manuel 27717
absolutely 27716
unsuccessful 27715
disaster 27714
dispute 27713
preparation 27712
tested 27711
discover 27710
##ach 27709
shield 27708
squeezed 27707
brushed 27706
battalion 27705
Arnold 27704
##ras 27703
superior 27702
treat 27701
clinical 27700
##so 27699
Apple 27698
Syria 27697
Cincinnati 27696
package 27695
flights 27694
editions 27693
Leader 27692
minority 27691
wonderful 27690
hang 27689
Pop 27688
Philippine 27687
telephone 27686
bell 27685
honorary 27684
##mar 27683
balls 27682
Democrat 27681
dirty 27680
thereafter 27679
collapsed 27678
Inside 27677
slip 27676
wrestling 27675
##ín 27674
listened 27673
regard 27672
bowl 27671
None 27670
Sport 27669
completing 27668
trapped 27667
##view 27666
copper 27665
Wallace 27664
Honor 27663
blame 27662
Peninsula 27661
##ert 27660
##oy 27659
Anglo 27658
bearing 27657
simultaneously 27656
honest 27655
##ias 27654
Mix 27653
Got 27652
speaker 27651
voiced 27650
impressed 27649
prices 27648
error 27647
1869 27646
##feld 27645
trials 27644
Nine 27643
Industry 27642
substitute 27641
Municipal 27640
departed 27639
slept 27638
##ama 27637
Junction 27636
Socialist 27635
flower 27634
dropping 27633
comment 27632
fantasy 27631
##ress 27630
arrangements 27629
travelled 27628
furniture 27627
fist 27626
relieved 27625
##tics 27624
Leonard 27623
linear 27622
earn 27621
expand 27620
Soul 27619
Plan 27618
Leeds 27617
Sierra 27616
accessible 27615
innocent 27614
Winner 27613
Fighter 27612
Range 27611
winds 27610
vertical 27609
Pictures 27608
101 27607
charter 27606
cooperation 27605
prisoner 27604
interviews 27603
recognised 27602
sung 27601
manufacturer 27600
exposure 27599
submitted 27598
Mars 27597
leaf 27596
gauge 27595
screaming 27594
likes 27593
eligible 27592
##ac 27591
gathering 27590
columns 27589
##dra 27588
belly 27587
UN 27586
maps 27585
messages 27584
speakers 27583
##ants 27582
garage 27581
unincorporated 27580
Number 27579
Watson 27578
sixteen 27577
lots 27576
beaten 27575
Could 27574
Municipality 27573
##ano 27572
Horse 27571
talks 27570
Drake 27569
scores 27568
Venice 27567
genetic 27566
##mal 27565
##ère 27564
Cold 27563
Jose 27562
nurse 27561
traditionally 27560
##bus 27559
Territory 27558
Key 27557
Nancy 27556
##win 27555
thumb 27554
São 27553
index 27552
dependent 27551
carries 27550
controls 27549
Comics 27548
coalition 27547
physician 27546
referring 27545
Ruth 27544
Based 27543
restricted 27542
inherited 27541
internationally 27540
stretch 27539
THE 27538
plates 27537
margin 27536
Holland 27535
knock 27534
significance 27533
valuable 27532
Kenya 27531
carved 27530
emotion 27529
conservation 27528
municipalities 27527
overseas 27526
resumed 27525
Finance 27524
graduation 27523
blinked 27522
temperatures 27521
constantly 27520
productions 27519
scientist 27518
ghost 27517
cuts 27516
permitted 27515
##ches 27514
firmly 27513
##bert 27512
patrol 27511
##yo 27510
Croatian 27509
attacking 27508
1850 27507
portrait 27506
promoting 27505
sink 27504
conversion 27503
##kov 27502
locomotives 27501
Guide 27500
##val 27499
nephew 27498
relevant 27497
Marc 27496
drum 27495
originated 27494
Chair 27493
visits 27492
dragged 27491
Price 27490
favour 27489
corridor 27488
properly 27487
respective 27486
Caroline 27485
reporting 27484
inaugural 27483
1848 27482
industries 27481
##ching 27480
edges 27479
Christianity 27478
Maurice 27477
Trent 27476
Economics 27475
carrier 27474
Reed 27473
##gon 27472
tribute 27471
Pradesh 27470
##ale 27469
extend 27468
attitude 27467
Yale 27466
##lu 27465
settlements 27464
glasses 27463
taxes 27462
targets 27461
##ids 27460
quarters 27459
##ological 27458
connect 27457
hence 27456
metre 27455
collapse 27454
underneath 27453
banned 27452
Future 27451
clients 27450
alternate 27449
explosion 27448
kinds 27447
Commons 27446
hungry 27445
dragon 27444
Chapel 27443
Buddhist 27442
lover 27441
depression 27440
pulls 27439
##ges 27438
##uk 27437
origins 27436
computers 27435
crosses 27434
kissing 27433
assume 27432
emphasis 27431
lighting 27430
##ites 27429
personally 27428
crashed 27427
beam 27426
touchdown 27425
lane 27424
comparison 27423
##mont 27422
Hitler 27421
##las 27420
execution 27419
##ene 27418
acre 27417
sum 27416
Pearl 27415
ray 27414
##point 27413
essentially 27412
worker 27411
convicted 27410
tear 27409
Clay 27408
recovery 27407
Literature 27406
Unfortunately 27405
##row 27404
partial 27403
Petersburg 27402
Bulgaria 27401
coaching 27400
evolved 27399
reception 27398
enters 27397
narrowed 27396
elevator 27395
therapy 27394
defended 27393
pairs 27392
##lam 27391
breaks 27390
Bennett 27389
Uncle 27388
cylinder 27387
##ison 27386
passion 27385
bases 27384
Actor 27383
cancelled 27382
battles 27381
extensively 27380
oxygen 27379
Ancient 27378
specialized 27377
negotiations 27376
##rat 27375
acquisition 27374
convince 27373
interpretation 27372
##00 27371
photos 27370
aspect 27369
colleges 27368
Artist 27367
keeps 27366
##wing 27365
Croatia 27364
##ona 27363
Hughes 27362
Otto 27361
comments 27360
##du 27359
Ph 27358
Sweet 27357
adventure 27356
describing 27355
Student 27354
Shakespeare 27353
scattered 27352
objective 27351
Aviation 27350
Phillips 27349
Fourth 27348
athletes 27347
##hal 27346
##tered 27345
Guitar 27344
intensity 27343
née 27342
dining 27341
curve 27340
Obama 27339
topics 27338
legislative 27337
Mill 27336
Cruz 27335
##ars 27334
Members 27333
recipient 27332
Derby 27331
inspiration 27330
corresponding 27329
fed 27328
YouTube 27327
coins 27326
pressing 27325
intent 27324
Karen 27323
cinema 27322
Delta 27321
destination 27320
shorter 27319
Christians 27318
imagined 27317
canal 27316
Newcastle 27315
Shah 27314
Adrian 27313
super 27312
Males 27311
160 27310
liberal 27309
lord 27308
bat 27307
supplied 27306
Claude 27305
meal 27304
worship 27303
##atic 27302
Han 27301
wire 27300
°F 27299
##tha 27298
punishment 27297
thirteen 27296
fighters 27295
##ibility 27294
1859 27293
Ball 27292
gardens 27291
##ari 27290
Ottawa 27289
pole 27288
indicating 27287
Twenty 27286
Higher 27285
Bass 27284
Ivy 27283
farming 27282
##urs 27281
certified 27280
Saudi 27279
plenty 27278
##ces 27277
restaurants 27276
Representative 27275
Miles 27274
payment 27273
##inger 27272
##rit 27271
Confederate 27270
festivals 27269
references 27268
##ić 27267
Mario 27266
PhD 27265
playoffs 27264
witness 27263
rice 27262
mask 27261
saving 27260
opponents 27259
enforcement 27258
automatically 27257
relegated 27256
##oe 27255
radar 27254
whenever 27253
Financial 27252
imperial 27251
uncredited 27250
influences 27249
Abraham 27248
skull 27247
Guardian 27246
Haven 27245
Bengal 27244
impressive 27243
input 27242
mixture 27241
Warsaw 27240
altitude 27239
distinction 27238
1857 27237
collective 27236
Annie 27235
##ean 27234
##bal 27233
directions 27232
Flying 27231
##nic 27230
faded 27229
##ella 27228
contributing 27227
##ó 27226
employee 27225
##lum 27224
##yl 27223
ruler 27222
oriented 27221
conductor 27220
focusing 27219
##die 27218
Giants 27217
Mills 27216
mines 27215
Deep 27214
curled 27213
Jessica 27212
guitars 27211
Louise 27210
procedure 27209
Machine 27208
failing 27207
attendance 27206
Nepal 27205
Brad 27204
Liam 27203
tourist 27202
exhibited 27201
Sophie 27200
depicted 27199
Shaw 27198
Chuck 27197
##can 27196
expecting 27195
challenges 27194
##nda 27193
equally 27192
resignation 27191
##logical 27190
Tigers 27189
loop 27188
pitched 27187
outdoor 27186
reviewed 27185
hopes 27184
True 27183
temporarily 27182
Borough 27181
torn 27180
jerked 27179
collect 27178
Berkeley 27177
Independence 27176
cotton 27175
retreat 27174
campaigns 27173
participating 27172
Intelligence 27171
Heaven 27170
##ked 27169
situations 27168
borough 27167
Democrats 27166
Harbor 27165
##len 27164
Liga 27163
serial 27162
circles 27161
fourteen 27160
##lot 27159
seized 27158
filling 27157
departments 27156
finance 27155
absolute 27154
Roland 27153
Nate 27152
floors 27151
raced 27150
struggling 27149
deliver 27148
protests 27147
##tel 27146
Exchange 27145
efficient 27144
experiments 27143
##dar 27142
faint 27141
3D 27140
binding 27139
Lions 27138
lightly 27137
skill 27136
proteins 27135
difficulties 27134
##cal 27133
monthly 27132
camps 27131
flood 27130
loves 27129
Amanda 27128
Commerce 27127
##oid 27126
##lies 27125
elementary 27124
##tre 27123
organic 27122
##stein 27121
##ph 27120
receives 27119
Tech 27118
enormous 27117
distinctive 27116
Joint 27115
experiment 27114
Circuit 27113
citizen 27112
##hy 27111
shelter 27110
ideal 27109
practically 27108
formula 27107
addressed 27106
Foster 27105
Productions 27104
##ax 27103
variable 27102
punk 27101
Voice 27100
fastest 27099
concentrated 27098
##oma 27097
##yer 27096
stored 27095
surrender 27094
vary 27093
Sergeant 27092
Wells 27091
ward 27090
Wait 27089
##ven 27088
playoff 27087
reducing 27086
cavalry 27085
##dle 27084
Venezuela 27083
tissue 27082
amounts 27081
sweat 27080
##we 27079
Non 27078
##nik 27077
beetle 27076
##bu 27075
##tu 27074
Jared 27073
Hunt 27072
##₂ 27071
fat 27070
Sultan 27069
Living 27068
Circle 27067
Secondary 27066
Suddenly 27065
reverse 27064
##min 27063
Travel 27062
##bin 27061
Lebanon 27060
##mas 27059
virus 27058
Wind 27057
dissolved 27056
enrolled 27055
holiday 27054
Keep 27053
helicopter 27052
Clarke 27051
constitutional 27050
technologies 27049
doubles 27048
instructions 27047
##ace 27046
Azerbaijan 27045
##ill 27044
occasional 27043
frozen 27042
trick 27041
wiped 27040
writings 27039
Shanghai 27038
preparing 27037
challenged 27036
mainstream 27035
summit 27034
180 27033
##arian 27032
##rating 27031
designation 27030
##ada 27029
revenge 27028
filming 27027
tightened 27026
Miguel 27025
Montana 27024
reflect 27023
celebration 27022
bitch 27021
flashed 27020
signals 27019
rounded 27018
peoples 27017
##tation 27016
renowned 27015
Google 27014
characteristic 27013
Campaign 27012
sliding 27011
##rman 27010
usage 27009
Record 27008
Using 27007
woke 27006
solutions 27005
holes 27004
theories 27003
logo 27002
Protestant 27001
relaxed 27000
brow 26999
nickname 26998
Reading 26997
marble 26996
##tro 26995
symptoms 26994
Overall 26993
capita 26992
##ila 26991
outbreak 26990
revolution 26989
deemed 26988
Principal 26987
Hannah 26986
approaches 26985
inducted 26984
Wellington 26983
vulnerable 26982
Environmental 26981
Drama 26980
incumbent 26979
Dame 26978
1854 26977
travels 26976
samples 26975
accurate 26974
physically 26973
Sony 26972
Nashville 26971
##sville 26970
##lic 26969
##og 26968
Producer 26967
Lucky 26966
tough 26965
Stanford 26964
resort 26963
repeatedly 26962
eyebrows 26961
Far 26960
choir 26959
commenced 26958
##ep 26957
##ridge 26956
rage 26955
swing 26954
sequel 26953
heir 26952
buses 26951
ad 26950
Grove 26949
##late 26948
##rick 26947
updated 26946
##SA 26945
Delaware 26944
##fa 26943
Athletics 26942
warmth 26941
Off 26940
excitement 26939
verse 26938
Protection 26937
Villa 26936
corruption 26935
intellectual 26934
Jenny 26933
##lyn 26932
mystery 26931
prayer 26930
healthy 26929
##ologist 26928
Bear 26927
lab 26926
Ernest 26925
Remix 26924
register 26923
basement 26922
Montgomery 26921
consistent 26920
tier 26919
1855 26918
Preston 26917
Brooks 26916
##maker 26915
vocalist 26914
laboratory 26913
delayed 26912
wheels 26911
rope 26910
bachelor 26909
pitcher 26908
Block 26907
Nevertheless 26906
suspect 26905
efficiency 26904
Nebraska 26903
siege 26902
FBI 26901
planted 26900
##AC 26899
Newton 26898
breeding 26897
##ain 26896
eighteen 26895
Argentine 26894
encounter 26893
servant 26892
1858 26891
elder 26890
Shadow 26889
Episode 26888
fabric 26887
doctors 26886
survival 26885
removal 26884
chemistry 26883
volunteers 26882
Kane 26881
variant 26880
arrives 26879
Eagle 26878
Left 26877
##fe 26876
Jo 26875
divorce 26874
##ret 26873
yesterday 26872
Bryan 26871
handling 26870
diseases 26869
customer 26868
Sheriff 26867
Tiger 26866
Harper 26865
##oi 26864
resting 26863
Linda 26862
Sheffield 26861
gasped 26860
sexy 26859
economics 26858
alien 26857
tale 26856
footage 26855
Liberty 26854
yeah 26853
fundamental 26852
Ground 26851
flames 26850
Actress 26849
photographer 26848
Maggie 26847
Additional 26846
joke 26845
custom 26844
Survey 26843
Abu 26842
silk 26841
consumption 26840
Ellis 26839
bread 26838
##uous 26837
engagement 26836
puts 26835
Dog 26834
##hr 26833
poured 26832
guilt 26831
CDP 26830
boxes 26829
hardware 26828
clenched 26827
##cio 26826
stem 26825
arena 26824
extending 26823
##com 26822
examination 26821
Steel 26820
encountered 26819
revised 26818
140 26817
picking 26816
Car 26815
hasn 26814
Minor 26813
pride 26812
Roosevelt 26811
boards 26810
##mia 26809
blocked 26808
curious 26807
drag 26806
narrative 26805
brigade 26804
Prefecture 26803
mysterious 26802
namely 26801
connects 26800
Devil 26799
historians 26798
CHAPTER 26797
quit 26796
installation 26795
Golf 26794
empire 26793
elevated 26792
##eo 26791
releasing 26790
Bond 26789
##uri 26788
harsh 26787
ban 26786
##BA 26785
contracts 26784
cloth 26783
presents 26782
stake 26781
chorus 26780
##eau 26779
swear 26778
##mp 26777
allies 26776
generations 26775
Motor 26774
meter 26773
pen 26772
warrior 26771
veteran 26770
##EC 26769
comprehensive 26768
missile 26767
interaction 26766
instruction 26765
Renaissance 26764
rested 26763
Dale 26762
fix 26761
fluid 26760
les 26759
investigate 26758
loaded 26757
widow 26756
exhibit 26755
artificial 26754
select 26753
rushing 26752
tasks 26751
signature 26750
nowhere 26749
Engineer 26748
feared 26747
Prague 26746
bother 26745
extinct 26744
gates 26743
Bird 26742
climbing 26741
heels 26740
striking 26739
artwork 26738
hunt 26737
awake 26736
##hin 26735
Formula 26734
thereby 26733
commitment 26732
imprisoned 26731
Beyond 26730
##MA 26729
transformed 26728
Agriculture 26727
Low 26726
Movie 26725
radical 26724
complicated 26723
Yellow 26722
Auckland 26721
mansion 26720
tenth 26719
Trevor 26718
predecessor 26717
##eer 26716
disbanded 26715
sucked 26714
circular 26713
witch 26712
gaining 26711
lean 26710
Behind 26709
illustrated 26708
rang 26707
celebrate 26706
bike 26705
consist 26704
framework 26703
##cent 26702
Shane 26701
owns 26700
350 26699
comprises 26698
collaborated 26697
colleagues 26696
##cast 26695
engage 26694
fewer 26693
##ave 26692
1856 26691
observation 26690
diplomatic 26689
legislature 26688
improvements 26687
Interstate 26686
craft 26685
MTV 26684
martial 26683
administered 26682
jet 26681
approaching 26680
permanently 26679
attraction 26678
manuscript 26677
numbered 26676
Happy 26675
Andrea 26674
shallow 26673
Gothic 26672
Anti 26671
##bad 26670
improvement 26669
trace 26668
preserve 26667
regardless 26666
rode 26665
dies 26664
achievement 26663
maintaining 26662
Hamburg 26661
spine 26660
##air 26659
flowing 26658
encourage 26657
widened 26656
posts 26655
##bound 26654
125 26653
Southeast 26652
Santiago 26651
##bles 26650
impression 26649
receiver 26648
Single 26647
closure 26646
##unt 26645
communist 26644
honors 26643
Northwest 26642
105 26641
##ulated 26640
cared 26639
un 26638
hug 26637
magnetic 26636
seeds 26635
topic 26634
perceived 26633
prey 26632
prevented 26631
Marvel 26630
Eight 26629
Michel 26628
Transportation 26627
rings 26626
Gate 26625
##gne 26624
Byzantine 26623
accommodate 26622
floating 26621
##dor 26620
equation 26619
ministry 26618
##ito 26617
##gled 26616
Rules 26615
earthquake 26614
revealing 26613
Brother 26612
Celtic 26611
blew 26610
chairs 26609
Panama 26608
Leon 26607
attractive 26606
descendants 26605
Care 26604
Ambassador 26603
tours 26602
breathed 26601
threatening 26600
##cho 26599
smiles 26598
Lt 26597
Beginning 26596
##iness 26595
fake 26594
assists 26593
fame 26592
strings 26591
Mobile 26590
Liu 26589
parks 26588
http 26587
1852 26586
brush 26585
Aunt 26584
bullet 26583
consciousness 26582
##sta 26581
##ther 26580
consequences 26579
gather 26578
dug 26577
1851 26576
bridges 26575
Doug 26574
##sion 26573
Artists 26572
ignore 26571
Carol 26570
brilliant 26569
radiation 26568
temples 26567
basin 26566
clouds 26565
##cted 26564
Stevens 26563
spite 26562
soap 26561
consumer 26560
Damn 26559
Snow 26558
recruited 26557
##craft 26556
Advanced 26555
tournaments 26554
Quinn 26553
undergraduate 26552
questioned 26551
Palmer 26550
Annual 26549
Others 26548
feeding 26547
Spider 26546
printing 26545
##orn 26544
cameras 26543
functional 26542
Chester 26541
readers 26540
Alpha 26539
universal 26538
Faith 26537
Brandon 26536
François 26535
authored 26534
Ring 26533
el 26532
aims 26531
athletic 26530
possessed 26529
Vermont 26528
programmes 26527
##uck 26526
bore 26525
Fisher 26524
statements 26523
shed 26522
saxophone 26521
neighboring 26520
pronounced 26519
barrel 26518
bags 26517
##dge 26516
organisations 26515
pilots 26514
casualties 26513
Kenneth 26512
##brook 26511
silently 26510
Malcolm 26509
span 26508
Essex 26507
anchor 26506
##hl 26505
virtual 26504
lessons 26503
Henri 26502
Trump 26501
Page 26500
pile 26499
locomotive 26498
wounds 26497
uncomfortable 26496
sustained 26495
Diana 26494
Eagles 26493
##pi 26492
2000s 26491
documented 26490
##bel 26489
Cassie 26488
delay 26487
kisses 26486
##ines 26485
variation 26484
##ag 26483
growled 26482
##mark 26481
##ways 26480
Leslie 26479
studios 26478
Friedrich 26477
aunt 26476
actively 26475
armor 26474
eaten 26473
historically 26472
Better 26471
purse 26470
honey 26469
ratings 26468
##ée 26467
naturally 26466
1840 26465
peer 26464
Kenny 26463
Cardinal 26462
database 26461
Looking 26460
runners 26459
handsome 26458
Double 26457
PA 26456
##boat 26455
##sted 26454
protecting 26453
##jan 26452
Diamond 26451
concepts 26450
interface 26449
##aki 26448
Watch 26447
Article 26446
Columbus 26445
dialogue 26444
pause 26443
##rio 26442
extends 26441
blanket 26440
pulse 26439
1853 26438
affiliate 26437
ladies 26436
Ronald 26435
counted 26434
kills 26433
demons 26432
##zation 26431
Airlines 26430
Marco 26429
Cat 26428
companion 26427
mere 26426
Yugoslavia 26425
Forum 26424
Allan 26423
pioneer 26422
Competition 26421
Methodist 26420
patent 26419
nobody 26418
Stockholm 26417
##ien 26416
regulation 26415
##ois 26414
accomplished 26413
##itive 26412
washed 26411
sake 26410
Vladimir 26409
crops 26408
prestigious 26407
humor 26406
Sally 26405
labour 26404
tributary 26403
trap 26402
altered 26401
examined 26400
Mumbai 26399
bombing 26398
Ash 26397
noble 26396
suspension 26395
ruins 26394
##bank 26393
spare 26392
displays 26391
guided 26390
dimensional 26389
Iraqi 26388
##hon 26387
sciences 26386
Franz 26385
relating 26384
fence 26383
followers 26382
Palestine 26381
invented 26380
proceeded 26379
Batman 26378
Bradley 26377
##yard 26376
##ova 26375
crystal 26374
Kerala 26373
##ima 26372
shipping 26371
handled 26370
Want 26369
abolished 26368
Drew 26367
##tter 26366
Powell 26365
Half 26364
##table 26363
##cker 26362
exhibitions 26361
Were 26360
assignment 26359
assured 26358
##rine 26357
Indonesian 26356
Grammy 26355
acknowledged 26354
Kylie 26353
coaches 26352
structural 26351
clearing 26350
stationed 26349
Say 26348
Total 26347
Rail 26346
besides 26345
glow 26344
threats 26343
afford 26342
Tree 26341
Musical 26340
##pp 26339
elite 26338
centered 26337
explore 26336
Engineers 26335
Stakes 26334
Hello 26333
tourism 26332
severely 26331
assessment 26330
##tly 26329
crack 26328
politicians 26327
##rrow 26326
sheets 26325
volunteer 26324
##borough 26323
##hold 26322
announcement 26321
recover 26320
contribute 26319
lungs 26318
##ille 26317
mainland 26316
presentation 26315
Johann 26314
Writing 26313
1849 26312
##bird 26311
Study 26310
Boulevard 26309
coached 26308
fail 26307
airline 26306
Congo 26305
Plus 26304
Syrian 26303
introduce 26302
ridge 26301
Casey 26300
manages 26299
##fi 26298
searched 26297
Support 26296
succession 26295
progressive 26294
coup 26293
cultures 26292
##lessly 26291
sensation 26290
Cork 26289
Elena 26288
Sofia 26287
Philosophy 26286
mini 26285
trunk 26284
academy 26283
Mass 26282
Liz 26281
practiced 26280
Reid 26279
##ule 26278
satisfied 26277
experts 26276
Wilhelm 26275
Woods 26274
invitation 26273
Angels 26272
calendar 26271
joy 26270
Sr 26269
Dam 26268
packed 26267
##uan 26266
bastard 26265
Workers 26264
broadcasts 26263
logic 26262
cooking 26261
backward 26260
##ack 26259
Chen 26258
creates 26257
enzyme 26256
##xi 26255
Davies 26254
aviation 26253
VII 26252
Conservation 26251
fucking 26250
Knights 26249
##kan 26248
requiring 26247
hectares 26246
wars 26245
ate 26244
##box 26243
Mind 26242
desired 26241
oak 26240
absorbed 26239
Really 26238
Vietnamese 26237
Paulo 26236
athlete 26235
##car 26234
##eth 26233
Talk 26232
Wu 26231
##cks 26230
survivors 26229
Yang 26228
Joel 26227
Almost 26226
Holmes 26225
Armed 26224
Joshua 26223
priests 26222
discontinued 26221
##sey 26220
blond 26219
Rolling 26218
suggesting 26217
CA 26216
clay 26215
exterior 26214
Scientific 26213
##sive 26212
Giovanni 26211
Hi 26210
farther 26209
contents 26208
Winners 26207
animation 26206
neutral 26205
mall 26204
Notes 26203
layers 26202
professionals 26201
Armstrong 26200
Against 26199
Piano 26198
involve 26197
monitor 26196
angel 26195
parked 26194
bears 26193
seated 26192
feat 26191
beliefs 26190
##kers 26189
Version 26188
suffer 26187
##ceae 26186
guidance 26185
##eur 26184
honored 26183
raid 26182
alarm 26181
Glen 26180
Ellen 26179
Jamaica 26178
trio 26177
enabled 26176
##ils 26175
procedures 26174
##hus 26173
moderate 26172
upstairs 26171
##ses 26170
torture 26169
Georgian 26168
rebellion 26167
Fernando 26166
Nice 26165
##are 26164
Aires 26163
Campus 26162
beast 26161
##hing 26160
1847 26159
##FA 26158
Isle 26157
##logist 26156
Princeton 26155
cathedral 26154
Oakland 26153
Solomon 26152
##tto 26151
Milwaukee 26150
upcoming 26149
midfielder 26148
Neither 26147
sacred 26146
Eyes 26145
appreciate 26144
Brunswick 26143
secrets 26142
Rice 26141
Somerset 26140
Chancellor 26139
Curtis 26138
##gel 26137
Rich 26136
separation 26135
grid 26134
##los 26133
##bon 26132
urge 26131
##ees 26130
##ree 26129
freight 26128
towers 26127
psychology 26126
requirement 26125
dollar 26124
##fall 26123
##sman 26122
exile 26121
tomb 26120
Salt 26119
Stefan 26118
Buenos 26117
Revival 26116
Porter 26115
tender 26114
diesel 26113
chocolate 26112
Eugene 26111
Legion 26110
Laboratory 26109
sheep 26108
arched 26107
hospitals 26106
orbit 26105
Full 26104
##hall 26103
drinks 26102
ripped 26101
##RS 26100
tense 26099
Hank 26098
leagues 26097
##nberg 26096
PlayStation 26095
fool 26094
Punjab 26093
relatives 26092
Comedy 26091
sur 26090
1846 26089
Tonight 26088
Sox 26087
##if 26086
Rabbi 26085
org 26084
speaks 26083
institute 26082
defender 26081
painful 26080
wishes 26079
Weekly 26078
literacy 26077
portions 26076
snake 26075
item 26074
deals 26073
##tum 26072
autumn 26071
sharply 26070
reforms 26069
thighs 26068
prototype 26067
##ition 26066
argues 26065
disorder 26064
Physics 26063
terror 26062
provisions 26061
refugees 26060
predominantly 26059
independently 26058
march 26057
##graphy 26056
Arabia 26055
Andrews 26054
Bus 26053
Money 26052
drops 26051
##zar 26050
pistol 26049
matrix 26048
revolutionary 26047
##ust 26046
Starting 26045
##ptic 26044
Oak 26043
Monica 26042
##ides 26041
servants 26040
##hed 26039
archaeological 26038
divorced 26037
rocket 26036
enjoying 26035
fires 26034
##nel 26033
assembled 26032
qualification 26031
retiring 26030
##fied 26029
Distinguished 26028
handful 26027
infection 26026
Durham 26025
##itz 26024
fortune 26023
renewed 26022
Chelsea 26021
##sley 26020
curved 26019
gesture 26018
retain 26017
exhausted 26016
##ifying 26015
Perth 26014
jumping 26013
Palestinian 26012
Simpson 26011
colonies 26010
steal 26009
##chy 26008
corners 26007
Finn 26006
arguing 26005
Martha 26004
##var 26003
Betty 26002
emerging 26001
Heights 26000
Hindi 25999
Manila 25998
pianist 25997
founders 25996
regret 25995
Napoleon 25994
elbow 25993
overhead 25992
bold 25991
praise 25990
humanity 25989
##ori 25988
Revolutionary 25987
##ere 25986
fur 25985
##ole 25984
Ashley 25983
Official 25982
##rm 25981
lovely 25980
Architecture 25979
##sch 25978
Baronet 25977
virtually 25976
##OS 25975
descended 25974
immigration 25973
##das 25972
##kes 25971
Holly 25970
Wednesday 25969
maintains 25968
theatrical 25967
Evan 25966
Gardens 25965
citing 25964
##gia 25963
segments 25962
Bailey 25961
Ghost 25960
##city 25959
governing 25958
graphics 25957
##ined 25956
privately 25955
potentially 25954
transformation 25953
Crystal 25952
Cabinet 25951
sacrifice 25950
hesitated 25949
mud 25948
Apollo 25947
Desert 25946
bin 25945
victories 25944
Editor 25943
Railways 25942
Web 25941
Case 25940
tourists 25939
Brussels 25938
Franco 25937
compiled 25936
topped 25935
Gene 25934
engineers 25933
commentary 25932
egg 25931
escort 25930
nerve 25929
arch 25928
necessarily 25927
frustration 25926
Michelle 25925
democracy 25924
genes 25923
Facebook 25922
halfway 25921
##ient 25920
102 25919
flipped 25918
Won 25917
##mit 25916
NASA 25915
Lynn 25914
Provincial 25913
ambassador 25912
Inspector 25911
glared 25910
Change 25909
McDonald 25908
developments 25907
tucked 25906
noting 25905
Gibson 25904
circulation 25903
dubbed 25902
armies 25901
resource 25900
Headquarters 25899
##iest 25898
Mia 25897
Albanian 25896
Oil 25895
Albums 25894
excuse 25893
intervention 25892
Grande 25891
Hugo 25890
integration 25889
civilians 25888
depends 25887
reserves 25886
Dee 25885
compositions 25884
identification 25883
restrictions 25882
quarterback 25881
Miranda 25880
Universe 25879
favourite 25878
ranges 25877
hint 25876
loyal 25875
Op 25874
entity 25873
Manual 25872
quoted 25871
dealt 25870
specialist 25869
Zhang 25868
download 25867
Westminster 25866
Rebecca 25865
streams 25864
Anglican 25863
variations 25862
Mine 25861
detective 25860
Films 25859
reserved 25858
##oke 25857
##key 25856
sailing 25855
##gger 25854
expanding 25853
recall 25852
discovers 25851
particles 25850
behaviour 25849
Gavin 25848
blank 25847
permit 25846
Java 25845
Fraser 25844
Pass 25843
##non 25842
##TA 25841
panels 25840
statistics 25839
notion 25838
courage 25837
dare 25836
venues 25835
##roy 25834
Box 25833
Newport 25832
travelling 25831
Thursday 25830
warriors 25829
Glenn 25828
criteria 25827
360 25826
mutual 25825
restore 25824
varied 25823
bitter 25822
Katherine 25821
##lant 25820
ritual 25819
bits 25818
##à 25817
Henderson 25816
trips 25815
Richardson 25814
Detective 25813
curse 25812
psychological 25811
Il 25810
midnight 25809
streak 25808
facts 25807
Dawn 25806
Indies 25805
Edmund 25804
roster 25803
Gen 25802
##nation 25801
1830 25800
congregation 25799
shaft 25798
##ically 25797
##mination 25796
Indianapolis 25795
Sussex 25794
loving 25793
##bit 25792
sounding 25791
horrible 25790
Continental 25789
Griffin 25788
advised 25787
magical 25786
millions 25785
##date 25784
1845 25783
Safety 25782
lifting 25781
determination 25780
valid 25779
dialect 25778
Penn 25777
Know 25776
triple 25775
avoided 25774
dancer 25773
judgment 25772
sixty 25771
farmer 25770
lakes 25769
blast 25768
aggressive 25767
Abby 25766
tag 25765
chains 25764
inscription 25763
##nn 25762
conducting 25761
Scout 25760
buying 25759
##wich 25758
spreading 25757
##OC 25756
array 25755
hurried 25754
Environment 25753
improving 25752
prompted 25751
fierce 25750
Taking 25749
Away 25748
tune 25747
pissed 25746
Bull 25745
catching 25744
##ying 25743
eyebrow 25742
metropolitan 25741
terrain 25740
##rel 25739
Lodge 25738
manufacturers 25737
creator 25736
##etic 25735
happiness 25734
ports 25733
##ners 25732
Relations 25731
fortress 25730
targeted 25729
##ST 25728
allegedly 25727
blues 25726
##osa 25725
Bosnia 25724
##dom 25723
burial 25722
similarly 25721
stranger 25720
pursued 25719
symbols 25718
rebels 25717
reflection 25716
routine 25715
traced 25714
indoor 25713
eventual 25712
##ska 25711
##ão 25710
##una 25709
MD 25708
##phone 25707
oh 25706
grants 25705
Reynolds 25704
rid 25703
operators 25702
##nus 25701
Joey 25700
vital 25699
siblings 25698
keyboard 25697
br 25696
removing 25695
societies 25694
drives 25693
solely 25692
princess 25691
lighter 25690
Various 25689
Cavalry 25688
believing 25687
SC 25686
underwent 25685
relay 25684
smelled 25683
syndrome 25682
welfare 25681
authorized 25680
seemingly 25679
Hard 25678
chicken 25677
##rina 25676
Ages 25675
Bo 25674
democratic 25673
barn 25672
Eye 25671
shorts 25670
##coming 25669
##hand 25668
disappointed 25667
unexpected 25666
centres 25665
Exhibition 25664
Stories 25663
Site 25662
banking 25661
accidentally 25660
Agent 25659
conjunction 25658
André 25657
Chloe 25656
resist 25655
width 25654
Queens 25653
provision 25652
##art 25651
Melissa 25650
Honorary 25649
Del 25648
prefer 25647
abruptly 25646
duration 25645
##vis 25644
Glass 25643
enlisted 25642
##ado 25641
discipline 25640
Sisters 25639
carriage 25638
##ctor 25637
##sburg 25636
Lancashire 25635
log 25634
fuck 25633
##iz 25632
closet 25631
collecting 25630
holy 25629
rape 25628
trusted 25627
cleaning 25626
inhabited 25625
Rocky 25624
104 25623
editorial 25622
##yu 25621
##ju 25620
succeed 25619
strict 25618
Cuban 25617
##iya 25616
Bronze 25615
outcome 25614
##ifies 25613
##set 25612
corps 25611
Hero 25610
barrier 25609
Kumar 25608
groaned 25607
Nina 25606
Burton 25605
enable 25604
stability 25603
Milton 25602
knots 25601
##ination 25600
slavery 25599
##borg 25598
curriculum 25597
trailer 25596
warfare 25595
Dante 25594
Edgar 25593
revival 25592
Copenhagen 25591
define 25590
advocate 25589
Garrett 25588
Luther 25587
overcome 25586
pipe 25585
750 25584
construct 25583
Scotia 25582
kings 25581
flooding 25580
##hard 25579
Ferdinand 25578
Felix 25577
forgot 25576
Fish 25575
Kurt 25574
elaborate 25573
##BC 25572
graphic 25571
gripped 25570
colonel 25569
Sophia 25568
Advisory 25567
Self 25566
##uff 25565
##lio 25564
monitoring 25563
seal 25562
senses 25561
rises 25560
peaceful 25559
journals 25558
1837 25557
checking 25556
legendary 25555
Ghana 25554
##power 25553
ammunition 25552
Rosa 25551
Richards 25550
nineteenth 25549
ferry 25548
aggregate 25547
Troy 25546
inter 25545
##wall 25544
Triple 25543
steep 25542
tent 25541
Cyprus 25540
1844 25539
##woman 25538
commanding 25537
farms 25536
doi 25535
navy 25534
specified 25533
na 25532
cricketer 25531
transported 25530
Think 25529
comprising 25528
grateful 25527
solve 25526
##core 25525
beings 25524
clerk 25523
grain 25522
vector 25521
discrimination 25520
##TC 25519
Katie 25518
reasonable 25517
drawings 25516
veins 25515
consideration 25514
Monroe 25513
repeat 25512
breed 25511
dried 25510
witnessed 25509
ordained 25508
Current 25507
spirits 25506
remarkable 25505
consultant 25504
urged 25503
Remember 25502
anime 25501
singers 25500
phenomenon 25499
Rhode 25498
Carlo 25497
demanding 25496
findings 25495
manual 25494
varying 25493
Fellowship 25492
generate 25491
safely 25490
heated 25489
withdrawn 25488
##ao 25487
headquartered 25486
##zon 25485
##lav 25484
##ency 25483
Col 25482
Memphis 25481
imposed 25480
rivals 25479
Planet 25478
healing 25477
##hs 25476
ensemble 25475
Warriors 25474
##bone 25473
cult 25472
Frankfurt 25471
##HL 25470
diversity 25469
Gerald 25468
intermediate 25467
##izes 25466
reactions 25465
Sister 25464
##ously 25463
##lica 25462
quantum 25461
awkward 25460
mentions 25459
pursuit 25458
##ography 25457
varies 25456
profession 25455
molecular 25454
consequence 25453
lectures 25452
cracked 25451
103 25450
slowed 25449
##tsu 25448
cheese 25447
upgraded 25446
suite 25445
substance 25444
Kingston 25443
1800 25442
Idaho 25441
Theory 25440
##een 25439
ain 25438
Carson 25437
Molly 25436
##OR 25435
configuration 25434
Whitney 25433
reads 25432
audiences 25431
##tie 25430
Geneva 25429
Outside 25428
##nen 25427
##had 25426
transit 25425
volleyball 25424
Randy 25423
Chad 25422
rubber 25421
motorcycle 25420
respected 25419
eager 25418
Level 25417
coin 25416
##lets 25415
neighbouring 25414
##wski 25413
confident 25412
##cious 25411
poll 25410
uncertain 25409
punch 25408
thesis 25407
Tucker 25406
IATA 25405
Alec 25404
##ographic 25403
##law 25402
1841 25401
desperately 25400
1812 25399
Lithuania 25398
accent 25397
Cox 25396
lightning 25395
skirt 25394
##load 25393
Burns 25392
Dynasty 25391
##ug 25390
chapters 25389
Working 25388
dense 25387
Morocco 25386
##kins 25385
casting 25384
Set 25383
activated 25382
oral 25381
Brien 25380
horn 25379
HIV 25378
dawn 25377
stumbled 25376
altar 25375
tore 25374
considerably 25373
Nicole 25372
interchange 25371
registration 25370
biography 25369
Hull 25368
Stan 25367
bulk 25366
consent 25365
Pierce 25364
##ER 25363
Fifth 25362
marched 25361
terrorist 25360
##piece 25359
##itt 25358
Presidential 25357
Heather 25356
staged 25355
Plant 25354
relegation 25353
sporting 25352
joins 25351
##ced 25350
Pakistani 25349
dynamic 25348
Heat 25347
##lf 25346
ourselves 25345
Except 25344
Elliott 25343
nationally 25342
goddess 25341
investors 25340
Burke 25339
Jackie 25338
##ā 25337
##RA 25336
Tristan 25335
Associate 25334
Tuesday 25333
scope 25332
Near 25331
bunch 25330
##abad 25329
##ben 25328
sunlight 25327
##aire 25326
manga 25325
Willie 25324
trucks 25323
boarding 25322
Lion 25321
lawsuit 25320
Learning 25319
Der 25318
pounding 25317
awful 25316
##mine 25315
IT 25314
Legend 25313
romance 25312
Serie 25311
AC 25310
gut 25309
precious 25308
Robertson 25307
hometown 25306
realm 25305
Guards 25304
Tag 25303
batting 25302
##vre 25301
halt 25300
conscious 25299
1838 25298
acquire 25297
collar 25296
##gg 25295
##ops 25294
Herald 25293
nationwide 25292
citizenship 25291
Aircraft 25290
decrease 25289
em 25288
Fiction 25287
Female 25286
corporation 25285
Located 25284
##ip 25283
fights 25282
unconscious 25281
Tampa 25280
Poetry 25279
lobby 25278
Malta 25277
##sar 25276
##bie 25275
layout 25274
Tate 25273
reader 25272
stained 25271
##bre 25270
##rst 25269
##ulate 25268
loudly 25267
Eva 25266
Cohen 25265
exploded 25264
Merit 25263
Maya 25262
##rable 25261
Rovers 25260
##IC 25259
Morrison 25258
Should 25257
vinyl 25256
##mie 25255
onwards 25254
##gie 25253
vicinity 25252
Wildlife 25251
probability 25250
Mar 25249
Barnes 25248
##ook 25247
spinning 25246
Moses 25245
##vie 25244
Surrey 25243
Planning 25242
conferences 25241
protective 25240
Plaza 25239
deny 25238
Canterbury 25237
manor 25236
Estate 25235
tilted 25234
comics 25233
IBM 25232
destroying 25231
server 25230
Dorothy 25229
##horn 25228
Oslo 25227
lesser 25226
heaven 25225
Marshal 25224
scales 25223
strikes 25222
##ath 25221
firms 25220
attract 25219
##BS 25218
controlling 25217
Bradford 25216
southeastern 25215
Amazon 25214
Travis 25213
Janet 25212
governed 25211
1842 25210
Train 25209
Holden 25208
bleeding 25207
gifts 25206
rent 25205
1839 25204
palms 25203
##ū 25202
judicial 25201
Ho 25200
Finals 25199
conflicts 25198
unlikely 25197
draws 25196
##cies 25195
compensation 25194
adds 25193
elderly 25192
Anton 25191
lasting 25190
Nintendo 25189
codes 25188
ministers 25187
pot 25186
associations 25185
capabilities 25184
##cht 25183
libraries 25182
##sie 25181
chances 25180
performers 25179
runway 25178
##af 25177
##nder 25176
Mid 25175
Vocals 25174
##uch 25173
##eon 25172
interpreted 25171
priority 25170
Uganda 25169
ruined 25168
Mathematics 25167
cook 25166
AFL 25165
Lutheran 25164
AIDS 25163
Capitol 25162
chase 25161
axis 25160
Moreover 25159
María 25158
Saxon 25157
storyline 25156
##ffed 25155
Tears 25154
Kid 25153
cent 25152
colours 25151
Sex 25150
##long 25149
pm 25148
blonde 25147
Edwin 25146
CE 25145
diocese 25144
##ents 25143
##boy 25142
Inn 25141
##ller 25140
Saskatchewan 25139
##kh 25138
stepping 25137
Windsor 25136
##oka 25135
##eri 25134
Xavier 25133
Resources 25132
1843 25131
##top 25130
##rad 25129
##lls 25128
Testament 25127
poorly 25126
1836 25125
drifted 25124
slope 25123
CIA 25122
remix 25121
Lords 25120
mature 25119
hosting 25118
diamond 25117
beds 25116
##ncies 25115
luxury 25114
trigger 25113
##lier 25112
preliminary 25111
hybrid 25110
journalists 25109
Enterprise 25108
proven 25107
expelled 25106
insects 25105
Beautiful 25104
lifestyle 25103
vanished 25102
##ake 25101
##ander 25100
matching 25099
surfaces 25098
Dominican 25097
Kids 25096
referendum 25095
Orlando 25094
Truth 25093
Sandy 25092
privacy 25091
Calgary 25090
Speaker 25089
sts 25088
Nobody 25087
shifting 25086
##gers 25085
Roll 25084
Armenia 25083
Hand 25082
##ES 25081
106 25080
##ont 25079
Guild 25078
larvae 25077
Stock 25076
flame 25075
gravity 25074
enhanced 25073
Marion 25072
surely 25071
##tering 25070
Tales 25069
algorithm 25068
Emmy 25067
darker 25066
VIII 25065
##lash 25064
hamlet 25063
deliberately 25062
occurring 25061
choices 25060
Gage 25059
fees 25058
settling 25057
ridiculous 25056
##ela 25055
Sons 25054
cop 25053
custody 25052
##ID 25051
proclaimed 25050
Cardinals 25049
##pm 25048
Metal 25047
Ana 25046
1835 25045
clue 25044
Cardiff 25043
riders 25042
observations 25041
MA 25040
sometime 25039
##och 25038
performer 25037
intact 25036
Points 25035
allegations 25034
rotation 25033
Tennis 25032
tenor 25031
Directors 25030
##ats 25029
Transit 25028
thigh 25027
Complex 25026
##works 25025
twentieth 25024
Factory 25023
doctrine 25022
Daddy 25021
##ished 25020
pretend 25019
Winston 25018
cigarette 25017
##IA 25016
specimens 25015
hydrogen 25014
smoking 25013
mathematical 25012
arguments 25011
openly 25010
developer 25009
##iro 25008
fists 25007
somebody 25006
##san 25005
Standing 25004
Caleb 25003
intelligent 25002
Stay 25001
Interior 25000
echoed 24999
Valentine 24998
varieties 24997
Brady 24996
cluster 24995
Ever 24994
voyage 24993
##of 24992
deposits 24991
ultimate 24990
Hayes 24989
horizontal 24988
proximity 24987
##ás 24986
estates 24985
exploration 24984
NATO 24983
Classical 24982
##most 24981
bills 24980
condemned 24979
1832 24978
hunger 24977
##ato 24976
planes 24975
deserve 24974
offense 24973
sequences 24972
rendered 24971
acceptance 24970
##ony 24969
manufacture 24968
Plymouth 24967
innovative 24966
predicted 24965
##RC 24964
Fantasy 24963
##une 24962
supporter 24961
absent 24960
Picture 24959
bassist 24958
rescued 24957
##MC 24956
Ahmed 24955
Monte 24954
##sts 24953
##rius 24952
insane 24951
novelist 24950
##és 24949
agrees 24948
Antarctic 24947
Lancaster 24946
Hopkins 24945
calculated 24944
startled 24943
##star 24942
tribal 24941
Amendment 24940
##hoe 24939
invisible 24938
patron 24937
deer 24936
Walk 24935
tracking 24934
Lyon 24933
tickets 24932
##ED 24931
philosopher 24930
compounds 24929
chuckled 24928
##wi 24927
pound 24926
loyalty 24925
Academic 24924
petition 24923
refuses 24922
marking 24921
Mercury 24920
northeastern 24919
dimensions 24918
scandal 24917
Canyon 24916
patch 24915
publish 24914
##oning 24913
Peak 24912
minds 24911
##boro 24910
Presbyterian 24909
Hardy 24908
theoretical 24907
magnitude 24906
bombs 24905
cage 24904
##ders 24903
##kai 24902
measuring 24901
explaining 24900
avoiding 24899
touchdowns 24898
Card 24897
theology 24896
##ured 24895
Popular 24894
export 24893
suspicious 24892
Probably 24891
photograph 24890
Lou 24889
Parks 24888
Arms 24887
compact 24886
Apparently 24885
excess 24884
Banks 24883
lied 24882
stunned 24881
territorial 24880
Filipino 24879
spectrum 24878
learns 24877
wash 24876
imprisonment 24875
ugly 24874
##rose 24873
Albany 24872
Erik 24871
sends 24870
##hara 24869
##rid 24868
consumed 24867
##gling 24866
Belgrade 24865
Da 24864
opposing 24863
Magnus 24862
footsteps 24861
glowing 24860
delicate 24859
Alexandria 24858
Ludwig 24857
gorgeous 24856
Bros 24855
Index 24854
##PA 24853
customs 24852
preservation 24851
bonds 24850
##mond 24849
environments 24848
##nto 24847
instructed 24846
parted 24845
adoption 24844
locality 24843
workshops 24842
goalkeeper 24841
##rik 24840
##uma 24839
Brighton 24838
Slovenia 24837
##ulating 24836
##tical 24835
towel 24834
hugged 24833
stripped 24832
Bears 24831
upright 24830
Wagner 24829
##aux 24828
secretly 24827
Adventures 24826
nest 24825
Course 24824
Lauren 24823
Boeing 24822
Abdul 24821
Lakes 24820
450 24819
##cu 24818
USSR 24817
caps 24816
Chan 24815
##nna 24814
conceived 24813
Actually 24812
Belfast 24811
Lithuanian 24810
concentrate 24809
possess 24808
militia 24807
pine 24806
protagonist 24805
Helena 24804
##PS 24803
##band 24802
Belle 24801
Clara 24800
Reform 24799
currency 24798
pregnancy 24797
1500 24796
##rim 24795
Isabella 24794
hull 24793
Name 24792
trend 24791
journalism 24790
diet 24789
##mel 24788
Recording 24787
acclaimed 24786
Tang 24785
Jace 24784
steering 24783
vacant 24782
suggestion 24781
costume 24780
laser 24779
##š 24778
##ink 24777
##pan 24776
##vić 24775
integral 24774
achievements 24773
wise 24772
classroom 24771
unions 24770
southwestern 24769
##uer 24768
Garcia 24767
toss 24766
Tara 24765
Large 24764
##tate 24763
evident 24762
responsibilities 24761
populated 24760
satisfaction 24759
##bia 24758
casual 24757
Ecuador 24756
##ght 24755
arose 24754
##ović 24753
Cornwall 24752
embrace 24751
refuse 24750
Heavyweight 24749
XI 24748
Eden 24747
activists 24746
##uation 24745
biology 24744
##shan 24743
fraud 24742
Fuck 24741
matched 24740
legacy 24739
Rivers 24738
missionary 24737
extraordinary 24736
Didn 24735
holder 24734
wickets 24733
crucial 24732
Writers 24731
Hurricane 24730
Iceland 24729
gross 24728
trumpet 24727
accordance 24726
hurry 24725
flooded 24724
doctorate 24723
Albania 24722
##yi 24721
united 24720
deceased 24719
jealous 24718
grief 24717
flute 24716
portraits 24715
##а 24714
pleasant 24713
Founded 24712
Face 24711
crowned 24710
Raja 24709
advisor 24708
Salem 24707
##ec 24706
Achievement 24705
admission 24704
freely 24703
minimal 24702
Sudan 24701
developers 24700
estimate 24699
disabled 24698
##lane 24697
downstairs 24696
Bruno 24695
##pus 24694
pinyin 24693
##ude 24692
lecture 24691
deadly 24690
underlying 24689
optical 24688
witnesses 24687
Combat 24686
Julius 24685
tapped 24684
variants 24683
##like 24682
Colonial 24681
Critics 24680
Similarly 24679
mouse 24678
voltage 24677
sculptor 24676
Concert 24675
salary 24674
Frances 24673
##ground 24672
hook 24671
premises 24670
Software 24669
instructor 24668
nominee 24667
##ited 24666
fog 24665
slopes 24664
##zu 24663
vegetation 24662
sail 24661
##rch 24660
Body 24659
Apart 24658
atop 24657
View 24656
utility 24655
ribs 24654
cab 24653
migration 24652
##wyn 24651
bounded 24650
2019 24649
pillow 24648
trails 24647
##ub 24646
Halifax 24645
shade 24644
Rush 24643
##lah 24642
##dian 24641
Notre 24640
interviewed 24639
Alexandra 24638
Springfield 24637
Indeed 24636
rubbing 24635
dozens 24634
amusement 24633
legally 24632
##lers 24631
Jill 24630
Cinema 24629
ignoring 24628
Choice 24627
##ures 24626
pockets 24625
##nell 24624
laying 24623
Blair 24622
tackles 24621
separately 24620
##teen 24619
Criminal 24618
performs 24617
theorem 24616
Communication 24615
suburbs 24614
##iel 24613
competitors 24612
rows 24611
##hai 24610
Manitoba 24609
Eleanor 24608
interactions 24607
nominations 24606
assassination 24605
##dis 24604
Edmonton 24603
diving 24602
##dine 24601
essay 24600
##tas 24599
AFC 24598
Edge 24597
directing 24596
imagination 24595
sunk 24594
implement 24593
Theodore 24592
trembling 24591
sealed 24590
##rock 24589
Nobel 24588
##ancy 24587
##dorf 24586
##chen 24585
genuine 24584
apartments 24583
Nicolas 24582
AA 24581
Bach 24580
Globe 24579
Store 24578
220 24577
##10 24576
Rochester 24575
##ño 24574
alert 24573
107 24572
Beck 24571
##nin 24570
Naples 24569
Basin 24568
Crawford 24567
fears 24566
Tracy 24565
##hen 24564
disk 24563
##pped 24562
seventeen 24561
Lead 24560
backup 24559
reconstruction 24558
##lines 24557
terrified 24556
sleeve 24555
nicknamed 24554
popped 24553
##making 24552
##ern 24551
Holiday 24550
Gospel 24549
ibn 24548
##ime 24547
convert 24546
divine 24545
resolved 24544
##quet 24543
ski 24542
realizing 24541
##RT 24540
Legislature 24539
reservoir 24538
Rain 24537
sinking 24536
rainfall 24535
elimination 24534
challenging 24533
tobacco 24532
##outs 24531
Given 24530
smallest 24529
Commercial 24528
pin 24527
rebel 24526
comedian 24525
exchanged 24524
airing 24523
dish 24522
Salvador 24521
promising 24520
##wl 24519
relax 24518
presenter 24517
toll 24516
aerial 24515
##eh 24514
Fletcher 24513
brass 24512
disappear 24511
zones 24510
adjusted 24509
contacts 24508
##lk 24507
sensed 24506
Walt 24505
mild 24504
toes 24503
flies 24502
shame 24501
considers 24500
wildlife 24499
Hanna 24498
Arsenal 24497
Ladies 24496
naming 24495
##ishing 24494
anxiety 24493
discussions 24492
cute 24491
undertaken 24490
Cash 24489
strain 24488
Wyoming 24487
dishes 24486
precise 24485
Angela 24484
##ided 24483
hostile 24482
twins 24481
115 24480
Built 24479
##pel 24478
Online 24477
tactics 24476
Newman 24475
##bourne 24474
unclear 24473
repairs 24472
embarrassed 24471
listing 24470
tugged 24469
Vale 24468
##gin 24467
Meredith 24466
bout 24465
##cle 24464
velocity 24463
tips 24462
froze 24461
evaluation 24460
demonstrate 24459
##card 24458
criticised 24457
Nash 24456
lineup 24455
Rao 24454
monks 24453
bacteria 24452
lease 24451
##lish 24450
frightened 24449
den 24448
revived 24447
finale 24446
##rance 24445
flee 24444
Letters 24443
decreased 24442
##oh 24441
Sounds 24440
wrap 24439
Sharon 24438
incidents 24437
renovated 24436
everybody 24435
stole 24434
Bath 24433
boxing 24432
1815 24431
withdraw 24430
backs 24429
interim 24428
react 24427
murders 24426
Rhodes 24425
Copa 24424
framed 24423
flown 24422
Estonia 24421
Heavy 24420
explored 24419
##rra 24418
##GA 24417
##ali 24416
Istanbul 24415
1834 24414
##rite 24413
##aging 24412
##ues 24411
Episcopal 24410
arc 24409
orientation 24408
Maxwell 24407
infected 24406
##rot 24405
BCE 24404
Brook 24403
grasp 24402
Roberto 24401
Excellence 24400
108 24399
withdrawal 24398
Marines 24397
rider 24396
Lo 24395
##sin 24394
##run 24393
Subsequently 24392
garrison 24391
hurricane 24390
facade 24389
Prussia 24388
crushed 24387
enterprise 24386
##mber 24385
Twitter 24384
Generation 24383
Physical 24382
Sugar 24381
editing 24380
communicate 24379
Ellie 24378
##hurst 24377
Ernst 24376
wagon 24375
promotional 24374
conquest 24373
Parliamentary 24372
courtyard 24371
lawyers 24370
Superman 24369
email 24368
Prussian 24367
lately 24366
lecturer 24365
Singer 24364
Majesty 24363
Paradise 24362
sooner 24361
Heath 24360
slot 24359
curves 24358
convoy 24357
##vian 24356
induced 24355
synonym 24354
breeze 24353
##plane 24352
##ox 24351
peered 24350
Coalition 24349
##hia 24348
odds 24347
##esh 24346
##lina 24345
Tomorrow 24344
Nadu 24343
##ico 24342
##rah 24341
damp 24340
autonomous 24339
console 24338
Victory 24337
counts 24336
Luxembourg 24335
intimate 24334
Archived 24333
Carroll 24332
spy 24331
Zero 24330
habit 24329
Always 24328
faction 24327
teenager 24326
Johnston 24325
chaos 24324
ruin 24323
commerce 24322
blog 24321
##shed 24320
##the 24319
reliable 24318
Word 24317
Yu 24316
Norton 24315
parade 24314
Catholics 24313
damned 24312
##iling 24311
surgeon 24310
##tia 24309
Allison 24308
Jonas 24307
remarked 24306
##ès 24305
idiot 24304
Making 24303
proposals 24302
Industries 24301
strategies 24300
artifacts 24299
batteries 24298
reward 24297
##vers 24296
Agricultural 24295
distinguish 24294
lengths 24293
Jeffrey 24292
Progressive 24291
kicking 24290
Patricia 24289
##gio 24288
ballot 24287
##ios 24286
skilled 24285
##gation 24284
Colt 24283
limestone 24282
##AS 24281
peninsula 24280
##itis 24279
LA 24278
hotels 24277
shapes 24276
Crime 24275
depicting 24274
northwestern 24273
HD 24272
silly 24271
Das 24270
##² 24269
##ws 24268
##ash 24267
##matic 24266
thermal 24265
Has 24264
forgive 24263
surrendered 24262
Palm 24261
Nacional 24260
drank 24259
haired 24258
Mercedes 24257
##foot 24256
loading 24255
Timothy 24254
##roll 24253
mechanisms 24252
traces 24251
digging 24250
discussing 24249
Natalie 24248
##zhou 24247
Forbes 24246
landmark 24245
Anyway 24244
Manor 24243
conspiracy 24242
gym 24241
knocking 24240
viewing 24239
Formation 24238
Pink 24237
Beauty 24236
limbs 24235
Phillip 24234
sponsor 24233
Joy 24232
granite 24231
Harbour 24230
##ero 24229
payments 24228
Ballet 24227
conviction 24226
##dam 24225
Hood 24224
estimates 24223
lacked 24222
Mad 24221
Jorge 24220
##wen 24219
refuge 24218
##LA 24217
invaded 24216
Kat 24215
suburban 24214
##fold 24213
investigated 24212
Ari 24211
complained 24210
creek 24209
Georges 24208
##uts 24207
powder 24206
accepting 24205
deserved 24204
carpet 24203
Thunder 24202
molecules 24201
Legal 24200
cliff 24199
strictly 24198
enrollment 24197
ranch 24196
##rg 24195
##mba 24194
proportion 24193
renovation 24192
crop 24191
grabbing 24190
##liga 24189
finest 24188
entries 24187
receptor 24186
helmet 24185
blown 24184
Listen 24183
flagship 24182
workshop 24181
resolve 24180
nails 24179
Shannon 24178
portal 24177
jointly 24176
shining 24175
Violet 24174
overwhelming 24173
upward 24172
Mick 24171
proceedings 24170
##dies 24169
##aring 24168
Laurence 24167
Churchill 24166
##rice 24165
commit 24164
170 24163
inclusion 24162
Examples 24161
##verse 24160
##rma 24159
fury 24158
paths 24157
##SC 24156
ankle 24155
nerves 24154
Chemistry 24153
rectangular 24152
sworn 24151
screenplay 24150
cake 24149
Mann 24148
Seoul 24147
Animal 24146
sizes 24145
Speed 24144
vol 24143
Population 24142
Southwest 24141
Hold 24140
continuously 24139
Qualified 24138
wishing 24137
Fighting 24136
Made 24135
disappointment 24134
Portsmouth 24133
Thirty 24132
##beck 24131
Ahmad 24130
teammate 24129
MLB 24128
graph 24127
Charleston 24126
realizes 24125
##dium 24124
exhibits 24123
preventing 24122
##int 24121
fever 24120
rivalry 24119
Male 24118
mentally 24117
dull 24116
##lor 24115
##rich 24114
consistently 24113
##igan 24112
Madame 24111
certificate 24110
suited 24109
Krishna 24108
accuracy 24107
Webb 24106
Budapest 24105
Rex 24104
1831 24103
Cornell 24102
OK 24101
surveillance 24100
##gated 24099
habitats 24098
Adventure 24097
Conrad 24096
Superior 24095
Gay 24094
sofa 24093
aka 24092
boot 24091
Statistics 24090
Jessie 24089
Liberation 24088
##lip 24087
##rier 24086
brands 24085
saint 24084
Heinrich 24083
Christine 24082
bath 24081
Rhine 24080
ballet 24079
Jin 24078
consensus 24077
chess 24076
Arctic 24075
stack 24074
furious 24073
cheap 24072
toy 24071
##yre 24070
##face 24069
##gging 24068
gastropod 24067
##nne 24066
Romans 24065
membrane 24064
answering 24063
25th 24062
architects 24061
sustainable 24060
##yne 24059
Hon 24058
1814 24057
Baldwin 24056
dome 24055
##awa 24054
##zen 24053
celebrity 24052
enclosed 24051
##uit 24050
##mmer 24049
Electronic 24048
locals 24047
##CE 24046
supervision 24045
mineral 24044
Chemical 24043
Slovakia 24042
alley 24041
hub 24040
##az 24039
heroes 24038
Creative 24037
##AM 24036
incredible 24035
politically 24034
ESPN 24033
yanked 24032
halls 24031
Aboriginal 24030
Greatest 24029
yield 24028
##20 24027
congressional 24026
robot 24025
Kiss 24024
welcomed 24023
MS 24022
speeds 24021
proceed 24020
Sherman 24019
eased 24018
Greene 24017
Walsh 24016
Geoffrey 24015
variables 24014
rocky 24013
##print 24012
acclaim 24011
Reverend 24010
Wonder 24009
tonnes 24008
recurring 24007
Dawson 24006
continent 24005
finite 24004
AP 24003
continental 24002
ID 24001
facilitate 24000
essays 23999
Rafael 23998
Neal 23997
1833 23996
ancestors 23995
##met 23994
##gic 23993
Especially 23992
teenage 23991
frustrated 23990
Jules 23989
cock 23988
expense 23987
##oli 23986
##old 23985
blocking 23984
Notable 23983
prohibited 23982
ca 23981
dock 23980
organize 23979
##wald 23978
Burma 23977
Gloria 23976
dimension 23975
aftermath 23974
choosing 23973
Mickey 23972
torpedo 23971
pub 23970
##used 23969
manuscripts 23968
laps 23967
Ulster 23966
staircase 23965
sphere 23964
Insurance 23963
Contest 23962
lens 23961
risks 23960
investigations 23959
ERA 23958
glare 23957
##play 23956
Graduate 23955
auction 23954
Chronicle 23953
##tric 23952
##50 23951
Coming 23950
seating 23949
Wade 23948
seeks 23947
inland 23946
Thames 23945
Rather 23944
butterfly 23943
contracted 23942
positioned 23941
consumers 23940
contestants 23939
fragments 23938
Yankees 23937
Santos 23936
administrator 23935
hypothesis 23934
retire 23933
Denis 23932
agreements 23931
Winnipeg 23930
##rill 23929
1820 23928
trophy 23927
crap 23926
shakes 23925
Jenkins 23924
##rium 23923
ya 23922
twist 23921
labels 23920
Maritime 23919
##lings 23918
##iv 23917
111 23916
##ensis 23915
Cairo 23914
Anything 23913
##fort 23912
opinions 23911
crowded 23910
##nian 23909
abandon 23908
##iff 23907
drained 23906
imported 23905
##rr 23904
tended 23903
##rain 23902
Going 23901
introducing 23900
sculptures 23899
bankruptcy 23898
danced 23897
demonstration 23896
stance 23895
settings 23894
gazed 23893
abstract 23892
pet 23891
Calvin 23890
stiff 23889
strongest 23888
wrestler 23887
##dre 23886
Republicans 23885
grace 23884
allocated 23883
cursed 23882
snail 23881
advancing 23880
Return 23879
errors 23878
Mall 23877
presenting 23876
eliminate 23875
Amateur 23874
Institution 23873
counting 23872
##wind 23871
warehouse 23870
##nde 23869
Ethiopia 23868
trailed 23867
hollow 23866
##press 23865
Literary 23864
capability 23863
nursing 23862
preceding 23861
lamp 23860
Thomson 23859
Morton 23858
##ctic 23857
Crew 23856
Close 23855
composers 23854
boom 23853
Clare 23852
missiles 23851
112 23850
hunter 23849
snap 23848
##oni 23847
##tail 23846
Us 23845
declaration 23844
##cock 23843
rally 23842
huh 23841
lion 23840
straightened 23839
Philippe 23838
Sutton 23837
alpha 23836
valued 23835
maker 23834
navigation 23833
detected 23832
favorable 23831
perception 23830
Charter 23829
##ña 23828
Ricky 23827
rebounds 23826
tunnels 23825
slapped 23824
Emergency 23823
supposedly 23822
##act 23821
deployment 23820
socialist 23819
tubes 23818
anybody 23817
corn 23816
##NA 23815
Seminary 23814
heating 23813
pump 23812
##AA 23811
achieving 23810
souls 23809
##ass 23808
Link 23807
##ele 23806
##smith 23805
greeted 23804
Bates 23803
Americas 23802
Elder 23801
cure 23800
contestant 23799
240 23798
fold 23797
Runner 23796
Uh 23795
licked 23794
Politics 23793
committees 23792
neighbors 23791
fairy 23790
Silva 23789
Leipzig 23788
tipped 23787
correctly 23786
exciting 23785
electronics 23784
foundations 23783
cottage 23782
governmental 23781
##hat 23780
allied 23779
claws 23778
presidency 23777
cruel 23776
Agreement 23775
slender 23774
accompanying 23773
precisely 23772
##pass 23771
driveway 23770
swim 23769
Stand 23768
crews 23767
##mission 23766
rely 23765
everyday 23764
Wings 23763
demo 23762
##hic 23761
recreational 23760
min 23759
nationality 23758
##duction 23757
Easter 23756
##hole 23755
canvas 23754
Kay 23753
Leicester 23752
talented 23751
Discovery 23750
shells 23749
##ech 23748
Kerry 23747
Ferguson 23746
Leave 23745
##place 23744
altogether 23743
adopt 23742
butt 23741
wolves 23740
##nsis 23739
##ania 23738
modest 23737
soprano 23736
Boris 23735
##ught 23734
electron 23733
depicts 23732
hid 23731
cruise 23730
differ 23729
treasure 23728
##nch 23727
Gun 23726
Mama 23725
Bengali 23724
trainer 23723
merchants 23722
innovation 23721
presumably 23720
Shirley 23719
bottles 23718
proceeds 23717
Fear 23716
invested 23715
Pirates 23714
particle 23713
Dominic 23712
blamed 23711
Fight 23710
Daisy 23709
##pper 23708
##graphic 23707
nods 23706
knight 23705
Doyle 23704
tales 23703
Carnegie 23702
Evil 23701
Inter 23700
Shore 23699
Nixon 23698
transform 23697
Savannah 23696
##gas 23695
Baltic 23694
stretching 23693
worlds 23692
protocol 23691
Percy 23690
Toby 23689
Heroes 23688
brave 23687
dancers 23686
##aria 23685
backwards 23684
responses 23683
Chi 23682
Gaelic 23681
Berry 23680
crush 23679
embarked 23678
promises 23677
Madonna 23676
researcher 23675
realised 23674
inaugurated 23673
Cherry 23672
Mikhail 23671
Nottingham 23670
reinforced 23669
subspecies 23668
rapper 23667
##kie 23666
Dreams 23665
Re 23664
Damon 23663
Minneapolis 23662
monsters 23661
suspicion 23660
Tel 23659
surroundings 23658
afterward 23657
complaints 23656
OF 23655
sectors 23654
Algeria 23653
lanes 23652
Sabha 23651
objectives 23650
Donna 23649
bothered 23648
distracted 23647
deciding 23646
##ives 23645
##CA 23644
##onia 23643
bishops 23642
Strange 23641
machinery 23640
Voiced 23639
synthesis 23638
reflects 23637
interference 23636
##TS 23635
##ury 23634
keen 23633
##ign 23632
frown 23631
freestyle 23630
ton 23629
Dixon 23628
Sacred 23627
Ruby 23626
Prison 23625
##ión 23624
1825 23623
outfit 23622
##tain 23621
curiosity 23620
##ight 23619
frames 23618
steadily 23617
emigrated 23616
horizon 23615
##erly 23614
Doc 23613
philosophical 23612
Table 23611
UTC 23610
Marina 23609
##DA 23608
secular 23607
##eed 23606
Zimbabwe 23605
cops 23604
Mack 23603
sheriff 23602
Sanskrit 23601
Francesco 23600
catches 23599
questioning 23598
streaming 23597
Kill 23596
testimony 23595
hissed 23594
tackle 23593
countryside 23592
copyright 23591
##IP 23590
Buddhism 23589
##rator 23588
ladder 23587
##ON 23586
Past 23585
rookie 23584
depths 23583
##yama 23582
##ister 23581
##HS 23580
Samantha 23579
Dana 23578
Educational 23577
brows 23576
Hammond 23575
raids 23574
envelope 23573
##sco 23572
##hart 23571
##ulus 23570
epic 23569
detection 23568
Streets 23567
Potter 23566
statistical 23565
für 23564
ni 23563
accounting 23562
##pot 23561
employer 23560
Sidney 23559
Depression 23558
commands 23557
Tracks 23556
averaged 23555
lets 23554
Ram 23553
longtime 23552
suits 23551
branded 23550
chip 23549
Shield 23548
loans 23547
ought 23546
Said 23545
sip 23544
##rome 23543
requests 23542
Vernon 23541
bordered 23540
veterans 23539
##ament 23538
Marsh 23537
Herzegovina 23536
Pine 23535
##igo 23534
mills 23533
anticipation 23532
reconnaissance 23531
##ef 23530
expectations 23529
protested 23528
arrow 23527
guessed 23526
depot 23525
maternal 23524
weakness 23523
##ap 23522
projected 23521
pour 23520
Carmen 23519
provider 23518
newer 23517
remind 23516
freed 23515
##rily 23514
##wal 23513
##tones 23512
intentions 23511
Fiji 23510
timing 23509
Match 23508
managers 23507
Kosovo 23506
Herman 23505
Wesley 23504
Chang 23503
135 23502
semifinals 23501
shouting 23500
Indo 23499
Janeiro 23498
Chess 23497
Macedonia 23496
Buck 23495
##onies 23494
rulers 23493
Mail 23492
##vas 23491
##sel 23490
MHz 23489
Programme 23488
Task 23487
commercially 23486
subtle 23485
propaganda 23484
spelled 23483
bowling 23482
basically 23481
Raven 23480
1828 23479
Colony 23478
109 23477
##ingham 23476
##wara 23475
anticipated 23474
1829 23473
##iers 23472
graduates 23471
##rton 23470
##fication 23469
endangered 23468
ISO 23467
diagnosed 23466
##tage 23465
exercises 23464
Battery 23463
bolt 23462
poison 23461
cartoon 23460
##ción 23459
hood 23458
bowed 23457
heal 23456
Meyer 23455
Reagan 23454
##wed 23453
subfamily 23452
##gent 23451
momentum 23450
infant 23449
detect 23448
##sse 23447
Chapman 23446
Darwin 23445
mechanics 23444
NSW 23443
Cancer 23442
Brooke 23441
Nuclear 23440
comprised 23439
hire 23438
sanctuary 23437
wingspan 23436
contrary 23435
remembering 23434
surprising 23433
Basic 23432
stealing 23431
OS 23430
hatred 23429
##lled 23428
masters 23427
violation 23426
Rule 23425
##nger 23424
assuming 23423
conquered 23422
louder 23421
robe 23420
Beatles 23419
legitimate 23418
##vation 23417
massacre 23416
Rica 23415
unsuccessfully 23414
poets 23413
##enberg 23412
careers 23411
doubled 23410
premier 23409
battalions 23408
Dubai 23407
Paper 23406
Louisville 23405
gestured 23404
dressing 23403
successive 23402
mumbled 23401
Vic 23400
referee 23399
pupil 23398
##cated 23397
##rre 23396
ceremonies 23395
picks 23394
##IN 23393
diplomat 23392
alike 23391
geographical 23390
rays 23389
##HA 23388
##read 23387
harbour 23386
factories 23385
pastor 23384
playwright 23383
Ultimate 23382
nationalist 23381
uniforms 23380
obtaining 23379
kit 23378
Amber 23377
##pling 23376
screenwriter 23375
ancestry 23374
##cott 23373
Fields 23372
PR 23371
Coleman 23370
rat 23369
Bavaria 23368
squeeze 23367
highlighted 23366
Adult 23365
reflecting 23364
Mel 23363
1824 23362
bicycle 23361
organizing 23360
sided 23359
Previously 23358
Underground 23357
Prof 23356
athletics 23355
coupled 23354
mortal 23353
Hampton 23352
worthy 23351
immune 23350
Ava 23349
##gun 23348
encouraging 23347
simplified 23346
##ssa 23345
##nte 23344
##ann 23343
Providence 23342
entities 23341
Pablo 23340
Strong 23339
Housing 23338
##ista 23337
##ators 23336
kidnapped 23335
mosque 23334
Kirk 23333
whispers 23332
fruits 23331
shattered 23330
fossil 23329
Empress 23328
Johns 23327
Webster 23326
Thing 23325
refusing 23324
differently 23323
specimen 23322
Ha 23321
##EN 23320
##tina 23319
##elle 23318
##night 23317
Horn 23316
neighbourhood 23315
Bolivia 23314
##rth 23313
genres 23312
Pre 23311
##vich 23310
Amelia 23309
swallow 23308
Tribune 23307
Forever 23306
Psychology 23305
Use 23304
##bers 23303
Gazette 23302
ash 23301
##usa 23300
Monster 23299
##cular 23298
delegation 23297
blowing 23296
Oblast 23295
retreated 23294
automobile 23293
##ex 23292
profits 23291
shirts 23290
devil 23289
Treasury 23288
##backs 23287
Drums 23286
Ronnie 23285
gameplay 23284
expertise 23283
Evening 23282
resides 23281
Caesar 23280
unity 23279
Crazy 23278
linking 23277
Vision 23276
donations 23275
Isabel 23274
valve 23273
Sue 23272
WWE 23271
logical 23270
availability 23269
fitting 23268
revolt 23267
##mill 23266
Linux 23265
taxi 23264
Access 23263
pollution 23262
statues 23261
Augustus 23260
##pen 23259
cello 23258
##some 23257
lacking 23256
##ati 23255
Gwen 23254
##aka 23253
##ovich 23252
1821 23251
Wow 23250
initiatives 23249
Uruguay 23248
Cain 23247
stroked 23246
examine 23245
##ī 23244
mentor 23243
moist 23242
disorders 23241
buttons 23240
##tica 23239
##anna 23238
Species 23237
Lynch 23236
museums 23235
scorer 23234
Poor 23233
eligibility 23232
op 23231
unveiled 23230
cats 23229
Title 23228
wheat 23227
critically 23226
Syracuse 23225
##osis 23224
marketed 23223
enhance 23222
Ryder 23221
##NG 23220
##ull 23219
##rna 23218
embedded 23217
throws 23216
foods 23215
happily 23214
##ami 23213
lesson 23212
formats 23211
punched 23210
##rno 23209
expressions 23208
qualities 23207
##sal 23206
Gods 23205
##lity 23204
elect 23203
wives 23202
##lling 23201
jungle 23200
Toyota 23199
reversed 23198
Grammar 23197
Cloud 23196
Agnes 23195
##ules 23194
disputed 23193
verses 23192
Lucien 23191
threshold 23190
##rea 23189
scanned 23188
##bled 23187
##dley 23186
##lice 23185
Kazakhstan 23184
Gardner 23183
Freeman 23182
##rz 23181
inspection 23180
Rita 23179
accommodation 23178
advances 23177
chill 23176
Elliot 23175
thriller 23174
Constantinople 23173
##mos 23172
debris 23171
whoever 23170
1810 23169
Santo 23168
Carey 23167
remnants 23166
Guatemala 23165
##irs 23164
carriers 23163
equations 23162
mandatory 23161
##WA 23160
anxious 23159
measurement 23158
Summit 23157
Terminal 23156
Erin 23155
##zes 23154
LLC 23153
##uo 23152
glancing 23151
sin 23150
##₃ 23149
Downtown 23148
flowering 23147
Euro 23146
Leigh 23145
Lance 23144
warn 23143
decent 23142
recommendations 23141
##ote 23140
Quartet 23139
##rrell 23138
Clarence 23137
colleague 23136
guarantee 23135
230 23134
Clayton 23133
Beast 23132
addresses 23131
prospect 23130
destroyer 23129
vegetables 23128
Leadership 23127
fatal 23126
prints 23125
190 23124
##makers 23123
Hyde 23122
persuaded 23121
illustrations 23120
Southampton 23119
Joyce 23118
beats 23117
editors 23116
mount 23115
##grave 23114
Malaysian 23113
Bombay 23112
endorsed 23111
##sian 23110
##bee 23109
applying 23108
Religion 23107
nautical 23106
bomber 23105
Na 23104
airfield 23103
gravel 23102
##rew 23101
Cave 23100
bye 23099
dig 23098
decree 23097
burden 23096
Election 23095
Hawk 23094
Fe 23093
##iled 23092
reunited 23091
##tland 23090
liver 23089
Teams 23088
Put 23087
delegates 23086
Ella 23085
##fect 23084
Cal 23083
invention 23082
Castro 23081
bored 23080
##kawa 23079
##ail 23078
Trinidad 23077
NASCAR 23076
pond 23075
develops 23074
##pton 23073
expenses 23072
Zoe 23071
Released 23070
##rf 23069
organs 23068
beta 23067
parameters 23066
Neill 23065
##lene 23064
lateral 23063
Beat 23062
blades 23061
Either 23060
##hale 23059
Mitch 23058
##ET 23057
##vous 23056
Rod 23055
burnt 23054
phones 23053
Rising 23052
##front 23051
investigating 23050
##dent 23049
Stephanie 23048
##keeper 23047
screening 23046
##uro 23045
Swan 23044
Sinclair 23043
modes 23042
bullets 23041
Nigerian 23040
melody 23039
##ques 23038
Rifle 23037
##12 23036
128 23035
##jin 23034
charm 23033
Venus 23032
##tian 23031
fusion 23030
advocated 23029
visitor 23028
pinned 23027
genera 23026
3000 23025
Ferry 23024
Solo 23023
quantity 23022
regained 23021
platinum 23020
shoots 23019
narrowly 23018
preceded 23017
update 23016
##ichi 23015
equality 23014
unaware 23013
regiments 23012
ally 23011
##tos 23010
transmitter 23009
locks 23008
Seeing 23007
outlets 23006
feast 23005
reopened 23004
##ows 23003
struggles 23002
Buddy 23001
1826 23000
bark 22999
elegant 22998
amused 22997
Pretty 22996
themed 22995
schemes 22994
Lisbon 22993
Te 22992
patted 22991
terrorism 22990
Mystery 22989
##croft 22988
##imo 22987
Madagascar 22986
Journey 22985
dealer 22984
contacted 22983
##quez 22982
ITV 22981
vacation 22980
Wong 22979
Sacramento 22978
organisms 22977
##pts 22976
balcony 22975
coloured 22974
sheer 22973
defines 22972
MC 22971
abortion 22970
forbidden 22969
accredited 22968
Newfoundland 22967
tendency 22966
entrepreneur 22965
Benny 22964
Tanzania 22963
needing 22962
finalist 22961
mythology 22960
weakened 22959
gown 22958
sentences 22957
Guest 22956
websites 22955
Tibetan 22954
UFC 22953
voluntary 22952
annoyed 22951
Welcome 22950
honestly 22949
correspondence 22948
geometry 22947
Deutsche 22946
Biology 22945
Help 22944
##aya 22943
Lines 22942
Hector 22941
##ael 22940
reluctant 22939
##ages 22938
wears 22937
inquiry 22936
##dell 22935
Holocaust 22934
Tourism 22933
Wei 22932
volcanic 22931
##mates 22930
Visual 22929
sorts 22928
neighborhoods 22927
Running 22926
apple 22925
shy 22924
Laws 22923
bend 22922
Northeast 22921
feminist 22920
Speedway 22919
Murder 22918
visa 22917
stuffed 22916
fangs 22915
transmitted 22914
fiscal 22913
Ain 22912
enlarged 22911
##ndi 22910
Cecil 22909
Peterson 22908
Benson 22907
Bedford 22906
acceptable 22905
##CC 22904
##wer 22903
purely 22902
triangle 22901
foster 22900
Alberto 22899
educator 22898
Highland 22897
acute 22896
LGBT 22895
Tina 22894
Mi 22893
adventures 22892
Davidson 22891
Honda 22890
translator 22889
monk 22888
enacted 22887
summoned 22886
##ional 22885
collector 22884
Genesis 22883
Un 22882
liner 22881
Di 22880
Statistical 22879
##CS 22878
filter 22877
Knox 22876
Religious 22875
Stella 22874
Estonian 22873
Turn 22872
##ots 22871
primitive 22870
parishes 22869
##lles 22868
complexity 22867
autobiography 22866
rigid 22865
cannon 22864
pursuing 22863
exploring 22862
##gram 22861
##mme 22860
freshman 22859
caves 22858
Expedition 22857
Traditional 22856
iTunes 22855
certification 22854
cooling 22853
##ort 22852
##gna 22851
##IT 22850
##lman 22849
##VA 22848
Motion 22847
explosive 22846
licence 22845
boxer 22844
shrine 22843
loosely 22842
Brigadier 22841
Savage 22840
Brett 22839
MVP 22838
heavier 22837
##elli 22836
##gged 22835
Buddha 22834
Easy 22833
spells 22832
fails 22831
incredibly 22830
Georg 22829
stern 22828
compatible 22827
Perfect 22826
applies 22825
cognitive 22824
excessive 22823
nightmare 22822
neighbor 22821
Sicily 22820
appealed 22819
static 22818
##₁ 22817
Aberdeen 22816
##leigh 22815
slipping 22814
bride 22813
##guard 22812
Um 22811
Clyde 22810
1818 22809
##gible 22808
Hal 22807
Frost 22806
Sanders 22805
interactive 22804
Hour 22803
##vor 22802
hurting 22801
bull 22800
termed 22799
shelf 22798
capturing 22797
##pace 22796
rolls 22795
113 22794
##bor 22793
Chilean 22792
teaches 22791
##rey 22790
exam 22789
shipped 22788
Twin 22787
borrowed 22786
##lift 22785
Shit 22784
##hot 22783
Lindsay 22782
Below 22781
Kiev 22780
Lin 22779
leased 22778
##sto 22777
Eli 22776
Diane 22775
Val 22774
subtropical 22773
shoe 22772
Bolton 22771
Dragons 22770
##rification 22769
Vatican 22768
##pathy 22767
Crisis 22766
dramatically 22765
talents 22764
babies 22763
##ores 22762
surname 22761
##AP 22760
##cology 22759
cubic 22758
opted 22757
Archer 22756
sweep 22755
tends 22754
Karnataka 22753
Judy 22752
stint 22751
Similar 22750
##nut 22749
explicitly 22748
##nga 22747
interact 22746
Mae 22745
portfolio 22744
clinic 22743
abbreviated 22742
Counties 22741
##iko 22740
hearts 22739
##ı 22738
providers 22737
screams 22736
Individual 22735
##etti 22734
Monument 22733
##iana 22732
accessed 22731
encounters 22730
gasp 22729
##rge 22728
defunct 22727
Avery 22726
##rne 22725
nobility 22724
useless 22723
Phase 22722
Vince 22721
senator 22720
##FL 22719
1813 22718
surprisingly 22717
##illo 22716
##chin 22715
Boyd 22714
rumors 22713
equity 22712
Gone 22711
Hearts 22710
chassis 22709
overnight 22708
Trek 22707
wrists 22706
submit 22705
civic 22704
designers 22703
##rity 22702
prominence 22701
decorative 22700
derives 22699
starter 22698
##AF 22697
wisdom 22696
Powers 22695
reluctantly 22694
measurements 22693
doctoral 22692
Noel 22691
Gideon 22690
Baden 22689
Cologne 22688
lawn 22687
Hawaiian 22686
anthology 22685
##rov 22684
Raiders 22683
embassy 22682
Sterling 22681
##pal 22680
Telugu 22679
troubled 22678
##FC 22677
##bian 22676
fountain 22675
observe 22674
ore 22673
##uru 22672
##gence 22671
spelling 22670
Border 22669
grinning 22668
sketch 22667
Benedict 22666
Xbox 22665
dialects 22664
readily 22663
immigrant 22662
Constitutional 22661
aided 22660
nevertheless 22659
SE 22658
tragedy 22657
##ager 22656
##rden 22655
Flash 22654
##MP 22653
Europa 22652
emissions 22651
##ield 22650
panties 22649
Beverly 22648
Homer 22647
curtain 22646
##oto 22645
toilet 22644
Isn 22643
Jerome 22642
Chiefs 22641
Hermann 22640
supernatural 22639
juice 22638
integrity 22637
Scots 22636
auto 22635
Patriots 22634
Strategic 22633
engaging 22632
prosecution 22631
cleaned 22630
Byron 22629
investments 22628
adequate 22627
vacuum 22626
laughs 22625
##inus 22624
##nge 22623
Usually 22622
Roth 22621
Cities 22620
Brand 22619
corpse 22618
##ffy 22617
Gas 22616
rifles 22615
Plains 22614
sponsorship 22613
Levi 22612
tray 22611
owed 22610
della 22609
commanders 22608
##ead 22607
tactical 22606
##rion 22605
García 22604
harbor 22603
discharge 22602
##hausen 22601
gentleman 22600
endless 22599
highways 22598
##itarian 22597
pleaded 22596
##eta 22595
archive 22594
Midnight 22593
exceptions 22592
instances 22591
Gibraltar 22590
cart 22589
##NS 22588
Darren 22587
Bonnie 22586
##yle 22585
##iva 22584
OCLC 22583
bra 22582
Jess 22581
##EA 22580
consulting 22579
Archives 22578
Chance 22577
distances 22576
commissioner 22575
##AR 22574
LL 22573
sailors 22572
##sters 22571
enthusiasm 22570
Lang 22569
##zia 22568
Yugoslav 22567
confirm 22566
possibilities 22565
Suffolk 22564
##eman 22563
banner 22562
1822 22561
Supporting 22560
fingertips 22559
civilization 22558
##gos 22557
technically 22556
1827 22555
Hastings 22554
sidewalk 22553
strained 22552
monuments 22551
Floyd 22550
Chennai 22549
Elvis 22548
villagers 22547
Cumberland 22546
strode 22545
albeit 22544
Believe 22543
planets 22542
combining 22541
Mohammad 22540
container 22539
##mouth 22538
##tures 22537
verb 22536
BA 22535
Tank 22534
Midland 22533
screened 22532
Gang 22531
Democracy 22530
Helsinki 22529
screens 22528
thread 22527
charitable 22526
##version 22525
swiftly 22524
ma 22523
rational 22522
combine 22521
##SS 22520
##antly 22519
dragging 22518
Cliff 22517
Tasmania 22516
quest 22515
professionally 22514
##aj 22513
rap 22512
##lion 22511
livestock 22510
##hua 22509
informal 22508
specially 22507
lonely 22506
Matthews 22505
Dictionary 22504
1816 22503
Observatory 22502
correspondent 22501
constitute 22500
homeless 22499
waving 22498
appreciated 22497
Analysis 22496
Meeting 22495
dagger 22494
##AL 22493
Gandhi 22492
flank 22491
Giant 22490
Choir 22489
##not 22488
glimpse 22487
toe 22486
Writer 22485
teasing 22484
springs 22483
##dt 22482
Glory 22481
healthcare 22480
regulated 22479
complaint 22478
math 22477
Publications 22476
makers 22475
##hips 22474
cement 22473
Need 22472
apologize 22471
disputes 22470
finishes 22469
Partners 22468
boring 22467
ups 22466
gains 22465
1793 22464
Congressional 22463
clergy 22462
Folk 22461
##made 22460
##nza 22459
Waters 22458
stays 22457
encoded 22456
spider 22455
betrayed 22454
Applied 22453
inception 22452
##urt 22451
##zzo 22450
wards 22449
bells 22448
UCLA 22447
Worth 22446
bombers 22445
Mo 22444
trademark 22443
Piper 22442
##vel 22441
incorporates 22440
1801 22439
##cial 22438
dim 22437
Twelve 22436
##word 22435
Appeals 22434
tighter 22433
spacecraft 22432
##tine 22431
coordinates 22430
##iac 22429
mistakes 22428
Zach 22427
laptop 22426
Teresa 22425
##llar 22424
##yr 22423
favored 22422
Nora 22421
sophisticated 22420
Irving 22419
hammer 22418
División 22417
corporations 22416
niece 22415
##rley 22414
Patterson 22413
UNESCO 22412
trafficking 22411
Ming 22410
balanced 22409
plaque 22408
Latvia 22407
broader 22406
##owed 22405
Save 22404
confined 22403
##vable 22402
Dalton 22401
tide 22400
##right 22399
##ural 22398
##num 22397
swords 22396
caring 22395
##eg 22394
IX 22393
Acting 22392
paved 22391
##moto 22390
launching 22389
Antoine 22388
substantially 22387
Pride 22386
Philharmonic 22385
grammar 22384
Indoor 22383
Ensemble 22382
enabling 22381
114 22380
resided 22379
Angelo 22378
publicity 22377
chaired 22376
crawled 22375
Maharashtra 22374
Telegraph 22373
lengthy 22372
preference 22371
differential 22370
anonymous 22369
Honey 22368
##itation 22367
wage 22366
##iki 22365
consecrated 22364
Bryant 22363
regulatory 22362
Carr 22361
##én 22360
functioning 22359
watches 22358
##ú 22357
shifts 22356
diagnosis 22355
Search 22354
app 22353
Peters 22352
##SE 22351
##cat 22350
Andreas 22349
honours 22348
temper 22347
counsel 22346
Urdu 22345
Anniversary 22344
maritime 22343
##uka 22342
harmony 22341
##unk 22340
essence 22339
Lorenzo 22338
choked 22337
Quarter 22336
indie 22335
##oll 22334
loses 22333
##prints 22332
amendment 22331
Adolf 22330
scenario 22329
similarities 22328
##rade 22327
##LC 22326
technological 22325
metric 22324
Russians 22323
thoroughly 22322
##tead 22321
cruiser 22320
1806 22319
##nier 22318
1823 22317
Teddy 22316
##psy 22315
au 22314
progressed 22313
exceptional 22312
broadcaster 22311
partnered 22310
fitness 22309
irregular 22308
placement 22307
mothers 22306
unofficial 22305
Garion 22304
Johannes 22303
1817 22302
regain 22301
Solar 22300
publishes 22299
Gates 22298
Broken 22297
thirds 22296
conversations 22295
dive 22294
Raj 22293
contributor 22292
quantities 22291
Worcester 22290
governance 22289
##flow 22288
generating 22287
pretending 22286
Belarus 22285
##voy 22284
radius 22283
skating 22282
Marathon 22281
1819 22280
affection 22279
undertook 22278
##wright 22277
los 22276
##bro 22275
locate 22274
PS 22273
excluded 22272
recreation 22271
tortured 22270
jewelry 22269
moaned 22268
##logue 22267
##cut 22266
Complete 22265
##rop 22264
117 22263
##II 22262
plantation 22261
whipped 22260
slower 22259
crater 22258
##drome 22257
Volunteer 22256
attributes 22255
celebrations 22254
regards 22253
Publishers 22252
oath 22251
utilized 22250
Robbie 22249
Giuseppe 22248
fiber 22247
indication 22246
melted 22245
archives 22244
Damien 22243
storey 22242
affecting 22241
identifying 22240
dances 22239
alumni 22238
comparable 22237
upgrade 22236
rented 22235
sprint 22234
##kle 22233
Marty 22232
##lous 22231
treating 22230
railways 22229
Lebanese 22228
erupted 22227
occupy 22226
sympathy 22225
Jude 22224
Darling 22223
Qatar 22222
drainage 22221
McCarthy 22220
heel 22219
Klein 22218
computing 22217
wireless 22216
flip 22215
Du 22214
Bella 22213
##ast 22212
##ssen 22211
narrator 22210
mist 22209
sings 22208
alignment 22207
121 22206
2020 22205
securing 22204
##rail 22203
Progress 22202
missionaries 22201
brutal 22200
mercy 22199
##shing 22198
Hip 22197
##ache 22196
##olo 22195
switching 22194
##here 22193
Malay 22192
##ob 22191
constituted 22190
Mohammed 22189
Often 22188
standings 22187
surge 22186
teachings 22185
ink 22184
detached 22183
systematic 22182
Trial 22181
Myanmar 22180
##wo 22179
offs 22178
Reyes 22177
decoration 22176
translations 22175
wherever 22174
reviewer 22173
speculation 22172
Bangkok 22171
terminated 22170
##ester 22169
beard 22168
RCA 22167
Aidan 22166
Associated 22165
Emerson 22164
Charity 22163
1803 22162
generous 22161
Dudley 22160
ATP 22159
##haven 22158
prizes 22157
toxic 22156
gloves 22155
##iles 22154
##dos 22153
Turning 22152
myth 22151
Parade 22150
##building 22149
Hits 22148
##eva 22147
teamed 22146
Above 22145
Duchess 22144
Holt 22143
##oth 22142
Sub 22141
Ace 22140
atomic 22139
inform 22138
Ship 22137
depend 22136
Jun 22135
##bes 22134
Norwich 22133
globe 22132
Baroque 22131
Christina 22130
Cotton 22129
Tunnel 22128
kidding 22127
Concerto 22126
Brittany 22125
tasted 22124
phases 22123
stems 22122
angles 22121
##TE 22120
##nam 22119
##40 22118
charted 22117
Alison 22116
intensive 22115
Willis 22114
glory 22113
##lit 22112
Bergen 22111
est 22110
taller 22109
##dicate 22108
labeled 22107
##ido 22106
commentator 22105
Warrior 22104
Viscount 22103
shortened 22102
aisle 22101
Aria 22100
Spike 22099
spectators 22098
goodbye 22097
overlooking 22096
mammals 22095
##lude 22094
wholly 22093
Barrett 22092
##gus 22091
accompany 22090
seventy 22089
employ 22088
##mb 22087
ambitious 22086
beloved 22085
basket 22084
##mma 22083
##lding 22082
halted 22081
descendant 22080
pad 22079
exclaimed 22078
cloak 22077
##pet 22076
Strait 22075
Bang 22074
Aviv 22073
sadness 22072
##ffer 22071
Donovan 22070
1880s 22069
agenda 22068
swinging 22067
##quin 22066
jerk 22065
Boat 22064
##rist 22063
nervously 22062
Silence 22061
Echo 22060
shout 22059
implies 22058
##iser 22057
##cking 22056
Shiva 22055
Weston 22054
damages 22053
##tist 22052
effectiveness 22051
Horace 22050
cycling 22049
Rey 22048
ache 22047
Photography 22046
PDF 22045
Dear 22044
leans 22043
Lea 22042
##vision 22041
booth 22040
attained 22039
disbelief 22038
##eus 22037
##ution 22036
Hop 22035
pension 22034
toys 22033
Eurovision 22032
faithful 22031
##heads 22030
Andre 22029
owe 22028
default 22027
Atlas 22026
Megan 22025
highlights 22024
lovers 22023
Constantine 22022
Sixth 22021
masses 22020
##garh 22019
emerge 22018
Auto 22017
Slovak 22016
##oa 22015
##vert 22014
Superintendent 22013
flicked 22012
inventor 22011
Chambers 22010
Frankie 22009
Romeo 22008
pottery 22007
companions 22006
Rudolf 22005
##liers 22004
diary 22003
Unless 22002
tap 22001
alter 22000
Randall 21999
##ddle 21998
##eal 21997
limitations 21996
##boards 21995
utterly 21994
knelt 21993
guaranteed 21992
Cowboys 21991
Islander 21990
horns 21989
##ike 21988
Wendy 21987
sexually 21986
Smart 21985
breasts 21984
##cian 21983
compromise 21982
Duchy 21981
AT 21980
Galaxy 21979
analog 21978
Style 21977
##aking 21976
weighed 21975
Nigel 21974
optional 21973
Czechoslovakia 21972
practicing 21971
Ham 21970
##0s 21969
feedback 21968
batted 21967
uprising 21966
operative 21965
applicable 21964
criminals 21963
classrooms 21962
Somehow 21961
##ode 21960
##OM 21959
Naomi 21958
Winchester 21957
##pping 21956
Bart 21955
Regina 21954
competitor 21953
Recorded 21952
Yuan 21951
Vera 21950
lust 21949
Confederation 21948
##test 21947
suck 21946
1809 21945
Lambert 21944
175 21943
Friend 21942
##ppa 21941
Slowly 21940
##⁺ 21939
Wake 21938
Dec 21937
##aneous 21936
chambers 21935
Color 21934
Gus 21933
##site 21932
Alternative 21931
##world 21930
Exeter 21929
Omaha 21928
celebrities 21927
striker 21926
210 21925
dwarf 21924
meals 21923
Oriental 21922
Pearson 21921
financing 21920
revenues 21919
underwater 21918
Steele 21917
screw 21916
Feeling 21915
Mt 21914
acids 21913
badge 21912
swore 21911
theaters 21910
Moving 21909
admired 21908
lung 21907
knot 21906
penalties 21905
116 21904
fork 21903
##cribed 21902
Afghan 21901
outskirts 21900
Cambodia 21899
oval 21898
wool 21897
fossils 21896
Ned 21895
Countess 21894
Darkness 21893
delicious 21892
##nica 21891
Evelyn 21890
Recordings 21889
guidelines 21888
##CP 21887
Sandra 21886
meantime 21885
Antarctica 21884
modeling 21883
granddaughter 21882
##rial 21881
Roma 21880
Seventh 21879
Sunshine 21878
Gabe 21877
##nton 21876
Shop 21875
Turks 21874
prolific 21873
soup 21872
parody 21871
##nta 21870
Judith 21869
disciplines 21868
resign 21867
Companies 21866
Libya 21865
Jets 21864
inserted 21863
Mile 21862
retrieve 21861
filmmaker 21860
##rand 21859
realistic 21858
unhappy 21857
##30 21856
sandstone 21855
##nas 21854
##lent 21853
##ush 21852
##rous 21851
Brent 21850
trash 21849
Rescue 21848
##unted 21847
Autumn 21846
disgust 21845
flexible 21844
infinite 21843
sideways 21842
##oss 21841
##vik 21840
trailing 21839
disturbed 21838
50th 21837
Newark 21836
posthumously 21835
##rol 21834
Schmidt 21833
Josef 21832
##eous 21831
determining 21830
menu 21829
Pole 21828
Anita 21827
Luc 21826
peaks 21825
118 21824
Yard 21823
warrant 21822
generic 21821
deserted 21820
Walking 21819
stamp 21818
tracked 21817
##berger 21816
paired 21815
surveyed 21814
sued 21813
Rainbow 21812
##isk 21811
Carpenter 21810
submarines 21809
realization 21808
touches 21807
sweeping 21806
Fritz 21805
module 21804
Whether 21803
resembles 21802
##form 21801
##lop 21800
unsure 21799
hunters 21798
Zagreb 21797
unemployment 21796
Senators 21795
Georgetown 21794
##onic 21793
Barker 21792
foul 21791
commercials 21790
Dresden 21789
Words 21788
collision 21787
Carlton 21786
Fashion 21785
doubted 21784
##ril 21783
precision 21782
MIT 21781
Jacobs 21780
mob 21779
Monk 21778
retaining 21777
gotta 21776
##rod 21775
remake 21774
Fast 21773
chips 21772
##pled 21771
sufficiently 21770
##lights 21769
delivering 21768
##enburg 21767
Dancing 21766
Barton 21765
Officers 21764
metals 21763
##lake 21762
religions 21761
##ré 21760
motivated 21759
differs 21758
dorsal 21757
##birds 21756
##rts 21755
Priest 21754
polished 21753
##aling 21752
Saxony 21751
Wyatt 21750
knockout 21749
##hor 21748
Lopez 21747
RNA 21746
##link 21745
metallic 21744
##kas 21743
daylight 21742
Montenegro 21741
##lining 21740
wrapping 21739
resemble 21738
Jam 21737
Viking 21736
uncertainty 21735
angels 21734
enables 21733
##fy 21732
Stuttgart 21731
tricks 21730
tattoo 21729
127 21728
wicked 21727
asset 21726
breach 21725
##yman 21724
MW 21723
breaths 21722
Jung 21721
im 21720
1798 21719
noon 21718
vowel 21717
##qua 21716
calmly 21715
seasonal 21714
chat 21713
ingredients 21712
cooled 21711
Randolph 21710
ensuring 21709
##ib 21708
##idal 21707
flashing 21706
1808 21705
Macedonian 21704
Cool 21703
councils 21702
##lick 21701
advantages 21700
Immediately 21699
Madras 21698
##cked 21697
Pain 21696
fancy 21695
chronic 21694
Malayalam 21693
begged 21692
##nese 21691
Inner 21690
feathers 21689
##vey 21688
Names 21687
dedication 21686
Sing 21685
pan 21684
Fischer 21683
nurses 21682
Sharp 21681
inning 21680
stamps 21679
Meg 21678
##ello 21677
edged 21676
motioned 21675
Jacksonville 21674
##ffle 21673
##dic 21672
##US 21671
divide 21670
garnered 21669
Ranking 21668
chasing 21667
modifications 21666
##oc 21665
clever 21664
midst 21663
flushed 21662
##DP 21661
void 21660
##sby 21659
ambulance 21658
beaches 21657
groan 21656
isolation 21655
strengthen 21654
prevention 21653
##ffs 21652
Scouts 21651
reformed 21650
geographic 21649
squadrons 21648
Fiona 21647
Kai 21646
Consequently 21645
##uss 21644
overtime 21643
##yas 21642
Fr 21641
##BL 21640
Papua 21639
Mixed 21638
glances 21637
Haiti 21636
Sporting 21635
sandy 21634
confronted 21633
René 21632
Tanner 21631
1811 21630
##IM 21629
advisory 21628
trim 21627
##ibe 21626
González 21625
gambling 21624
Jupiter 21623
##ility 21622
##owski 21621
##nar 21620
122 21619
apology 21618
teased 21617
Pool 21616
feminine 21615
wicket 21614
eagle 21613
shiny 21612
##lator 21611
blend 21610
peaking 21609
nasty 21608
nodding 21607
fraction 21606
tech 21605
Noble 21604
Kuwait 21603
brushing 21602
Italia 21601
Canberra 21600
duet 21599
Johan 21598
1805 21597
Written 21596
cameo 21595
Stalin 21594
pig 21593
cord 21592
##zio 21591
Surely 21590
SA 21589
owing 21588
holidays 21587
123 21586
Ranger 21585
lighthouse 21584
##ige 21583
miners 21582
1804 21581
##ë 21580
##gren 21579
##ried 21578
crashing 21577
##atory 21576
wartime 21575
highlight 21574
inclined 21573
Torres 21572
Tax 21571
##zel 21570
##oud 21569
Own 21568
##corn 21567
Divine 21566
EMI 21565
Relief 21564
Northwestern 21563
ethics 21562
BMW 21561
click 21560
plasma 21559
Christie 21558
coordinator 21557
Shepherd 21556
washing 21555
cooked 21554
##dio 21553
##eat 21552
Cerambycidae 21551
algebra 21550
Engine 21549
costumes 21548
Vampire 21547
vault 21546
submission 21545
virtue 21544
assumption 21543
##rell 21542
Toledo 21541
##oting 21540
##rva 21539
crept 21538
emphasized 21537
##lton 21536
##ood 21535
Greeks 21534
surgical 21533
crest 21532
Patrol 21531
Beta 21530
Tessa 21529
##GS 21528
pizza 21527
traits 21526
rats 21525
Iris 21524
spray 21523
##GC 21522
Lightning 21521
binary 21520
escapes 21519
##take 21518
Clary 21517
crowds 21516
##zong 21515
hauled 21514
maid 21513
##fen 21512
Manning 21511
##yang 21510
Nielsen 21509
aesthetic 21508
sympathetic 21507
affiliation 21506
soaked 21505
Mozart 21504
personalities 21503
begging 21502
##iga 21501
clip 21500
Raphael 21499
yearly 21498
Lima 21497
abundant 21496
##lm 21495
1794 21494
strips 21493
Initiative 21492
reporters 21491
##vsky 21490
consolidated 21489
##itated 21488
Civic 21487
rankings 21486
mandate 21485
symbolic 21484
##ively 21483
1807 21482
rental 21481
duck 21480
nave 21479
complications 21478
##nor 21477
Irene 21476
Nazis 21475
haunted 21474
scholarly 21473
Pratt 21472
Gran 21471
Embassy 21470
Wave 21469
pity 21468
genius 21467
bats 21466
canton 21465
Tropical 21464
marker 21463
##cos 21462
escorted 21461
Climate 21460
##posed 21459
appreciation 21458
freezing 21457
puzzle 21456
Internal 21455
pools 21454
Shawn 21453
pathway 21452
Daniels 21451
Fitzgerald 21450
extant 21449
olive 21448
Vanessa 21447
marriages 21446
cocked 21445
##dging 21444
prone 21443
chemicals 21442
doll 21441
drawer 21440
##HF 21439
Stark 21438
Property 21437
##tai 21436
flowed 21435
Sheridan 21434
##uated 21433
Less 21432
Omar 21431
remarks 21430
catalogue 21429
Seymour 21428
wreck 21427
Carrie 21426
##bby 21425
Mercer 21424
displaced 21423
sovereignty 21422
rip 21421
Flynn 21420
Archie 21419
Quarterfinals 21418
Hassan 21417
##ards 21416
vein 21415
Osaka 21414
pouring 21413
wages 21412
Romance 21411
##cript 21410
##phere 21409
550 21408
##eil 21407
##stown 21406
Documentary 21405
ancestor 21404
CNN 21403
Panthers 21402
publishers 21401
Rise 21400
##mu 21399
biting 21398
Bright 21397
String 21396
succeeding 21395
119 21394
loaned 21393
Warwick 21392
Sheikh 21391
Von 21390
Afterwards 21389
Jax 21388
Camden 21387
helicopters 21386
Hence 21385
Laurel 21384
##ddy 21383
transaction 21382
Corp 21381
clause 21380
##owing 21379
##kel 21378
Investment 21377
cups 21376
Lucia 21375
Moss 21374
Giles 21373
chef 21372
López 21371
decisive 21370
30th 21369
distress 21368
linguistic 21367
surveys 21366
Ready 21365
maiden 21364
Touch 21363
frontier 21362
incorporate 21361
exotic 21360
mollusk 21359
Leopold 21358
Ride 21357
##wain 21356
##ndo 21355
teammates 21354
tones 21353
drift 21352
ordering 21351
Feb 21350
Penny 21349
Normandy 21348
Present 21347
Flag 21346
pipes 21345
##rro 21344
delight 21343
motto 21342
Tibet 21341
leap 21340
Eliza 21339
Produced 21338
teenagers 21337
sitcom 21336
Try 21335
Hansen 21334
Cody 21333
wandered 21332
terrestrial 21331
frog 21330
scare 21329
resisted 21328
employers 21327
coined 21326
##DS 21325
resistant 21324
Fly 21323
captive 21322
dissolution 21321
judged 21320
associates 21319
defining 21318
##court 21317
Hale 21316
##mbo 21315
raises 21314
clusters 21313
twelfth 21312
##metric 21311
Roads 21310
##itude 21309
satisfy 21308
Android 21307
Reds 21306
Gloucester 21305
Category 21304
Valencia 21303
Daemon 21302
stabbed 21301
Luna 21300
Churches 21299
Canton 21298
##eller 21297
Attack 21296
Kashmir 21295
annexed 21294
grabs 21293
asteroid 21292
Hartford 21291
recommendation 21290
Rodriguez 21289
handing 21288
stressed 21287
frequencies 21286
delegate 21285
Bones 21284
Erie 21283
Weber 21282
Hands 21281
Acts 21280
millimetres 21279
24th 21278
Fat 21277
Howe 21276
casually 21275
##SL 21274
convent 21273
1790 21272
IF 21271
##sity 21270
1795 21269
yelling 21268
##ises 21267
drain 21266
addressing 21265
amino 21264
Marcel 21263
Sylvia 21262
Paramount 21261
Gerard 21260
Volleyball 21259
butter 21258
124 21257
Albion 21256
##GB 21255
triggered 21254
1792 21253
folding 21252
accepts 21251
##ße 21250
preparations 21249
Wimbledon 21248
dose 21247
##grass 21246
escaping 21245
##tling 21244
import 21243
charging 21242
##dation 21241
280 21240
Nolan 21239
##fried 21238
Calcutta 21237
##pool 21236
Cove 21235
examining 21234
minded 21233
heartbeat 21232
twisting 21231
domains 21230
bush 21229
Tunisia 21228
Purple 21227
Leone 21226
##code 21225
evacuated 21224
battlefield 21223
tiger 21222
Electrical 21221
##ared 21220
chased 21219
##cre 21218
cultivated 21217
Jet 21216
solved 21215
shrug 21214
ringing 21213
Impact 21212
##iant 21211
kilometre 21210
##log 21209
commemorate 21208
migrated 21207
singular 21206
designing 21205
promptly 21204
Higgins 21203
##own 21202
##aves 21201
freshwater 21200
Marketing 21199
Payne 21198
beg 21197
locker 21196
pray 21195
implied 21194
AAA 21193
corrected 21192
Trans 21191
Europeans 21190
Ashe 21189
acknowledge 21188
Introduction 21187
##writer 21186
##llen 21185
Munster 21184
auxiliary 21183
growl 21182
Hours 21181
Poems 21180
##AT 21179
reduces 21178
Plain 21177
plague 21176
canceled 21175
detention 21174
polite 21173
necklace 21172
Gustav 21171
##gu 21170
##lance 21169
En 21168
Angola 21167
##bb 21166
dwelling 21165
##hea 21164
5000 21163
Qing 21162
Dodgers 21161
rim 21160
##ored 21159
##haus 21158
spilled 21157
Elisabeth 21156
Viktor 21155
backpack 21154
1802 21153
amended 21152
##worthy 21151
Phantom 21150
##ctive 21149
keeper 21148
##loom 21147
Vikings 21146
##gua 21145
employs 21144
Tehran 21143
specialty 21142
##bate 21141
Marx 21140
Mirror 21139
Jenna 21138
rides 21137
needle 21136
prayers 21135
clarinet 21134
forewings 21133
##walk 21132
Midlands 21131
convincing 21130
advocacy 21129
Cao 21128
Birds 21127
cycles 21126
Clement 21125
Gil 21124
bubble 21123
Maximum 21122
humanitarian 21121
Tan 21120
cries 21119
##SI 21118
Parsons 21117
Trio 21116
offshore 21115
Innovation 21114
clutched 21113
260 21112
##mund 21111
##duct 21110
Prairie 21109
relied 21108
Falcon 21107
##ste 21106
Kolkata 21105
Gill 21104
Swift 21103
Negro 21102
Zoo 21101
valleys 21100
##OL 21099
Opening 21098
beams 21097
MPs 21096
outline 21095
Bermuda 21094
Personal 21093
exceed 21092
productive 21091
##MT 21090
republic 21089
forum 21088
##sty 21087
tornado 21086
Known 21085
dipped 21084
Edith 21083
folks 21082
mathematician 21081
watershed 21080
Ricardo 21079
synthetic 21078
##dication 21077
deity 21076
##₄ 21075
gaming 21074
subjected 21073
suspects 21072
Foot 21071
swollen 21070
Motors 21069
##tty 21068
##ý 21067
aloud 21066
ceremonial 21065
es 21064
nuts 21063
intend 21062
Carlisle 21061
tasked 21060
hesitation 21059
sponsors 21058
unified 21057
inmates 21056
##ctions 21055
##stan 21054
tiles 21053
jokes 21052
whereby 21051
outcomes 21050
Lights 21049
scary 21048
Stoke 21047
Portrait 21046
Blind 21045
sergeant 21044
violations 21043
cultivation 21042
fuselage 21041
Mister 21040
Alfonso 21039
candy 21038
sticks 21037
teen 21036
agony 21035
Enough 21034
invite 21033
Perkins 21032
Appeal 21031
mapping 21030
undergo 21029
Glacier 21028
Melanie 21027
affects 21026
incomplete 21025
##dd 21024
Colombian 21023
##nate 21022
CBC 21021
purchasing 21020
bypass 21019
Drug 21018
Electronics 21017
Frontier 21016
Coventry 21015
##aan 21014
autonomy 21013
scrambled 21012
Recent 21011
bounced 21010
cow 21009
experiencing 21008
Rouge 21007
cuisine 21006
Elite 21005
disability 21004
Ji 21003
inheritance 21002
wildly 21001
Into 21000
##wig 20999
confrontation 20998
Wheeler 20997
shiver 20996
Performing 20995
aligned 20994
consequently 20993
Alexis 20992
Sin 20991
woodland 20990
executives 20989
Stevenson 20988
Ferrari 20987
inevitable 20986
##cist 20985
##dha 20984
##base 20983
Corner 20982
comeback 20981
León 20980
##eck 20979
##urus 20978
MacDonald 20977
pioneering 20976
breakdown 20975
landscapes 20974
Veterans 20973
Rican 20972
Theological 20971
stirred 20970
participant 20969
Credit 20968
Hyderabad 20967
snails 20966
Claudia 20965
##ocene 20964
compliance 20963
##MI 20962
Flags 20961
Middlesex 20960
storms 20959
winding 20958
asserted 20957
er 20956
##ault 20955
##kal 20954
waking 20953
##rates 20952
abbey 20951
Augusta 20950
tooth 20949
trustees 20948
Commodore 20947
##uded 20946
Cunningham 20945
NC 20944
Witch 20943
marching 20942
Sword 20941
Same 20940
spiral 20939
Harley 20938
##ahan 20937
Zack 20936
Audio 20935
1890s 20934
##fit 20933
Simmons 20932
Kara 20931
Veronica 20930
negotiated 20929
Speaking 20928
FIBA 20927
Conservatory 20926
formations 20925
constituencies 20924
explicit 20923
facial 20922
eleventh 20921
##ilt 20920
villain 20919
##dog 20918
##case 20917
##hol 20916
armored 20915
tin 20914
hairs 20913
##umi 20912
##rai 20911
mattress 20910
Angus 20909
cease 20908
verbal 20907
Recreation 20906
savings 20905
Aurora 20904
peers 20903
Monastery 20902
Airways 20901
drowned 20900
additions 20899
downstream 20898
sticking 20897
Shi 20896
mice 20895
skiing 20894
##CD 20893
Raw 20892
Riverside 20891
warming 20890
hooked 20889
boost 20888
memorable 20887
posed 20886
treatments 20885
320 20884
##dai 20883
celebrating 20882
blink 20881
helpless 20880
circa 20879
Flowers 20878
PM 20877
uncommon 20876
Oct 20875
Hawks 20874
overwhelmed 20873
Sparhawk 20872
repaired 20871
Mercy 20870
pose 20869
counterpart 20868
compare 20867
survives 20866
##½ 20865
##eum 20864
coordinate 20863
Lil 20862
grandchildren 20861
notorious 20860
Yi 20859
Judaism 20858
Juliet 20857
accusations 20856
1789 20855
floated 20854
marathon 20853
roar 20852
fortified 20851
reunion 20850
145 20849
Nov 20848
Paula 20847
##fare 20846
##toria 20845
tearing 20844
Cedar 20843
disappearance 20842
Si 20841
gifted 20840
scar 20839
270 20838
PBS 20837
Technologies 20836
Marvin 20835
650 20834
roller 20833
cupped 20832
negotiate 20831
##erman 20830
passport 20829
tram 20828
miracle 20827
styled 20826
##tier 20825
necessity 20824
Des 20823
rehabilitation 20822
Lara 20821
USD 20820
psychic 20819
wipe 20818
##lem 20817
mistaken 20816
##lov 20815
charming 20814
Rider 20813
pageant 20812
dynamics 20811
Cassidy 20810
##icus 20809
defenses 20808
##tadt 20807
##vant 20806
aging 20805
##inal 20804
declare 20803
mistress 20802
supervised 20801
##alis 20800
##rest 20799
Ashton 20798
submerged 20797
sack 20796
Dodge 20795
grocery 20794
ramp 20793
Teacher 20792
lineage 20791
imagery 20790
arrange 20789
inscriptions 20788
Organisation 20787
Siege 20786
combines 20785
pounded 20784
Fleming 20783
legends 20782
columnist 20781
Apostolic 20780
prose 20779
insight 20778
Arabian 20777
expired 20776
##uses 20775
##nos 20774
Alone 20773
elbows 20772
##asis 20771
##adi 20770
##combe 20769
Step 20768
Waterloo 20767
Alternate 20766
interval 20765
Sonny 20764
plains 20763
Goals 20762
incorporating 20761
recruit 20760
adjoining 20759
Cheshire 20758
excluding 20757
marrying 20756
ducked 20755
Cherokee 20754
par 20753
##inate 20752
hiking 20751
Coal 20750
##bow 20749
natives 20748
ribbon 20747
Allies 20746
con 20745
descriptions 20744
positively 20743
##lal 20742
defendant 20741
22nd 20740
Vivian 20739
##beat 20738
Weather 20737
possessions 20736
Date 20735
sweetheart 20734
inability 20733
Salisbury 20732
adviser 20731
ideology 20730
Nordic 20729
##eu 20728
Cubs 20727
IP 20726
Administrative 20725
##nick 20724
facto 20723
liberation 20722
Burnett 20721
Javier 20720
fashioned 20719
Electoral 20718
Turin 20717
theft 20716
unanimous 20715
Per 20714
1799 20713
Clan 20712
Hawkins 20711
Teachers 20710
##wes 20709
Cameroon 20708
Parkway 20707
##gment 20706
demolition 20705
atoms 20704
nucleus 20703
##thi 20702
recovering 20701
##yte 20700
##vice 20699
lifts 20698
Must 20697
deposit 20696
Hancock 20695
Semi 20694
darkened 20693
Declaration 20692
moan 20691
muscular 20690
Myers 20689
attractions 20688
sauce 20687
simulation 20686
##weed 20685
Alps 20684
barriers 20683
##baum 20682
Barack 20681
galleries 20680
Min 20679
holders 20678
Greenwich 20677
donation 20676
Everybody 20675
Wolfgang 20674
sandwich 20673
Kendra 20672
Collegiate 20671
casino 20670
Slavic 20669
ensuing 20668
Porto 20667
##grapher 20666
Jesuit 20665
suppressed 20664
tires 20663
Ibrahim 20662
protesters 20661
Ibn 20660
Amos 20659
1796 20658
phenomena 20657
Hayden 20656
Paraguay 20655
Squad 20654
Reilly 20653
complement 20652
aluminum 20651
##eers 20650
doubts 20649
decay 20648
demise 20647
Practice 20646
patience 20645
fireplace 20644
transparent 20643
monarchy 20642
##person 20641
Rodney 20640
mattered 20639
rotating 20638
Clifford 20637
disposal 20636
Standards 20635
paced 20634
##llie 20633
arise 20632
tallest 20631
tug 20630
documentation 20629
node 20628
freeway 20627
Nikolai 20626
##cite 20625
clicked 20624
imaging 20623
Lorraine 20622
Tactical 20621
Different 20620
Regular 20619
Holding 20618
165 20617
Pilot 20616
guarded 20615
##polis 20614
Classics 20613
Mongolia 20612
Brock 20611
monarch 20610
cellular 20609
receptors 20608
Mini 20607
Chandler 20606
financed 20605
financially 20604
Lives 20603
erection 20602
Fuller 20601
unnamed 20600
Kannada 20599
cc 20598
passive 20597
plateau 20596
##arity 20595
freak 20594
##rde 20593
retrieved 20592
transactions 20591
##sus 20590
23rd 20589
swimmer 20588
beef 20587
fulfill 20586
Arlington 20585
offspring 20584
reasoning 20583
Rhys 20582
saves 20581
pseudonym 20580
centimetres 20579
shivered 20578
shuddered 20577
##ME 20576
Feel 20575
##otic 20574
professors 20573
Blackburn 20572
##eng 20571
##life 20570
##haw 20569
interred 20568
lodge 20567
fragile 20566
Della 20565
guardian 20564
##bbled 20563
catalog 20562
clad 20561
observer 20560
tract 20559
declaring 20558
##headed 20557
Lok 20556
dean 20555
Isabelle 20554
1776 20553
irrigation 20552
spectacular 20551
shuttle 20550
mastering 20549
##aro 20548
Nathaniel 20547
Retired 20546
##lves 20545
Brennan 20544
##kha 20543
dick 20542
##dated 20541
##hler 20540
Rookie 20539
leapt 20538
televised 20537
weekends 20536
Baghdad 20535
Yemen 20534
##fo 20533
factions 20532
ion 20531
Lab 20530
mortality 20529
passionate 20528
Hammer 20527
encompasses 20526
confluence 20525
demonstrations 20524
Ki 20523
derivative 20522
soils 20521
##unch 20520
Ranch 20519
Universities 20518
conventions 20517
outright 20516
aiming 20515
hierarchy 20514
reside 20513
illusion 20512
graves 20511
rituals 20510
126 20509
Antwerp 20508
Dover 20507
##ema 20506
campuses 20505
Hobart 20504
lifelong 20503
aliens 20502
##vity 20501
Memory 20500
coordination 20499
alphabet 20498
##mina 20497
Titans 20496
pushes 20495
Flanders 20494
##holder 20493
Normal 20492
excellence 20491
capped 20490
profound 20489
Taipei 20488
portrayal 20487
sparked 20486
scratch 20485
se 20484
##eas 20483
##hir 20482
Mackenzie 20481
##cation 20480
Neo 20479
Shin 20478
##lined 20477
magnificent 20476
poster 20475
batsman 20474
##rgent 20473
persuade 20472
##ement 20471
Icelandic 20470
miserable 20469
collegiate 20468
Feature 20467
geography 20466
##mura 20465
Comic 20464
Circus 20463
processor 20462
barracks 20461
Tale 20460
##11 20459
Bulls 20458
##rap 20457
strengthened 20456
##bell 20455
injection 20454
miniature 20453
broadly 20452
Letter 20451
fare 20450
hostage 20449
traders 20448
##nium 20447
##mere 20446
Fortune 20445
Rivera 20444
Lu 20443
triumph 20442
Browns 20441
Bangalore 20440
cooperative 20439
Basel 20438
announcing 20437
Sawyer 20436
##him 20435
##cco 20434
##kara 20433
darted 20432
##AD 20431
##nova 20430
sucking 20429
##position 20428
perimeter 20427
flung 20426
Holdings 20425
##NP 20424
Basque 20423
sketches 20422
Augustine 20421
Silk 20420
Elijah 20419
analyst 20418
armour 20417
riots 20416
acquiring 20415
ghosts 20414
##ems 20413
132 20412
Pioneer 20411
Colleges 20410
Simone 20409
Economy 20408
Author 20407
semester 20406
Soldier 20405
il 20404
##unting 20403
##bid 20402
freaking 20401
Vista 20400
tumor 20399
##bat 20398
murderer 20397
##eda 20396
unreleased 20395
##grove 20394
##sser 20393
##té 20392
edit 20391
statute 20390
sovereign 20389
##gawa 20388
Killer 20387
stares 20386
Fury 20385
comply 20384
##lord 20383
##nant 20382
barrels 20381
Andhra 20380
Maple 20379
generator 20378
mascot 20377
unusually 20376
eds 20375
##ante 20374
##runner 20373
rod 20372
##tles 20371
Historically 20370
Jennings 20369
dumped 20368
Established 20367
resemblance 20366
##lium 20365
##cise 20364
##body 20363
##voke 20362
Lydia 20361
##hou 20360
##iring 20359
nonetheless 20358
1797 20357
corrupt 20356
patrons 20355
physicist 20354
sneak 20353
Livingston 20352
Citizens 20351
Architects 20350
Werner 20349
trends 20348
Melody 20347
eighty 20346
markings 20345
brakes 20344
##titled 20343
oversaw 20342
processed 20341
mock 20340
Midwest 20339
intervals 20338
##EF 20337
stretches 20336
werewolf 20335
##MG 20334
Pack 20333
controller 20332
##dition 20331
Honours 20330
cane 20329
Griffith 20328
vague 20327
repertoire 20326
Courtney 20325
orgasm 20324
Abdullah 20323
dominance 20322
occupies 20321
Ya 20320
introduces 20319
Lester 20318
instinct 20317
collaborative 20316
Indigenous 20315
refusal 20314
##rank 20313
outlet 20312
debts 20311
spear 20310
155 20309
##keeping 20308
##ulu 20307
Catalan 20306
##osh 20305
tensions 20304
##OT 20303
bred 20302
crude 20301
Dunn 20300
abdomen 20299
accurately 20298
##fu 20297
##lough 20296
accidents 20295
Row 20294
Audrey 20293
rude 20292
Getting 20291
promotes 20290
replies 20289
Paolo 20288
merge 20287
##nock 20286
trans 20285
Evangelical 20284
automated 20283
Canon 20282
##wear 20281
##ggy 20280
##gma 20279
Broncos 20278
foolish 20277
icy 20276
Voices 20275
knives 20274
Aside 20273
dreamed 20272
generals 20271
molecule 20270
AG 20269
rejection 20268
insufficient 20267
##nagar 20266
deposited 20265
sacked 20264
Landing 20263
arches 20262
helpful 20261
devotion 20260
intake 20259
Flower 20258
PGA 20257
dragons 20256
evolutionary 20255
##mail 20254
330 20253
GM 20252
tissues 20251
##tree 20250
arcade 20249
composite 20248
lid 20247
Across 20246
implications 20245
lacks 20244
theological 20243
assessed 20242
concentrations 20241
Den 20240
##mans 20239
##ulous 20238
Fu 20237
homeland 20236
##stream 20235
Harriet 20234
ecclesiastical 20233
troop 20232
ecological 20231
winked 20230
##xed 20229
eighteenth 20228
Casino 20227
specializing 20226
##sworth 20225
unlocked 20224
supreme 20223
devastated 20222
snatched 20221
trauma 20220
GDP 20219
Nord 20218
saddle 20217
Wes 20216
convenient 20215
competes 20214
##nu 20213
##iss 20212
Marian 20211
subway 20210
##rri 20209
successes 20208
umbrella 20207
##far 20206
##ually 20205
Dundee 20204
##cence 20203
spark 20202
##rix 20201
##я 20200
Quality 20199
Geological 20198
cockpit 20197
rpm 20196
Cam 20195
Bucharest 20194
riot 20193
##PM 20192
Leah 20191
##dad 20190
##pose 20189
Ka 20188
m³ 20187
Bundesliga 20186
Wolfe 20185
grim 20184
textile 20183
quartet 20182
expressing 20181
fantastic 20180
destroyers 20179
eternal 20178
picnic 20177
##oro 20176
contractor 20175
1775 20174
spanning 20173
declining 20172
##cating 20171
Lowe 20170
Sutherland 20169
Emirates 20168
downward 20167
nineteen 20166
violently 20165
scout 20164
viral 20163
melting 20162
enterprises 20161
##cer 20160
Crosby 20159
Jubilee 20158
antenna 20157
urgent 20156
Rory 20155
##uin 20154
##sure 20153
wandering 20152
##gler 20151
##vent 20150
Suzuki 20149
Lifetime 20148
Dirty 20147
occupying 20146
##quent 20145
Disc 20144
Guru 20143
mound 20142
Lennon 20141
Humanities 20140
listeners 20139
Walton 20138
uh 20137
Braves 20136
Bologna 20135
##bis 20134
##gra 20133
Dwight 20132
crawl 20131
flags 20130
memoir 20129
Thorne 20128
Archdiocese 20127
dairy 20126
##uz 20125
##tery 20124
roared 20123
adjust 20122
patches 20121
inn 20120
Knowing 20119
##bbed 20118
##zan 20117
scan 20116
Papa 20115
precipitation 20114
angrily 20113
passages 20112
postal 20111
Phi 20110
embraced 20109
blacks 20108
economist 20107
triangular 20106
Sen 20105
shooter 20104
punished 20103
Millennium 20102
Swimming 20101
confessed 20100
Aston 20099
defeats 20098
Era 20097
cousins 20096
Williamson 20095
##rer 20094
daytime 20093
dumb 20092
##rek 20091
underway 20090
specification 20089
Buchanan 20088
prayed 20087
concealed 20086
activation 20085
##issa 20084
canon 20083
awesome 20082
Starr 20081
plural 20080
summers 20079
##fields 20078
Slam 20077
unnecessary 20076
1791 20075
resume 20074
trilogy 20073
compression 20072
##rough 20071
selective 20070
dignity 20069
Yan 20068
##xton 20067
immense 20066
##yun 20065
lone 20064
seeded 20063
hiatus 20062
lightweight 20061
summary 20060
Yo 20059
approve 20058
Galway 20057
rejoined 20056
Elise 20055
garbage 20054
burns 20053
speeches 20052
129 20051
Honduras 20050
##liness 20049
inventory 20048
jersey 20047
FK 20046
assure 20045
slumped 20044
Lionel 20043
Suite 20042
##sbury 20041
Lena 20040
continuation 20039
##AN 20038
brightly 20037
##nti 20036
GT 20035
Knowledge 20034
##park 20033
##lius 20032
lethal 20031
##tribution 20030
##sions 20029
Certificate 20028
Mara 20027
##lby 20026
algorithms 20025
Jade 20024
blows 20023
pirates 20022
fleeing 20021
wheelchair 20020
Stein 20019
sophomore 20018
Alt 20017
Territorial 20016
diploma 20015
snakes 20014
##olic 20013
##tham 20012
Tiffany 20011
Pius 20010
flush 20009
urging 20008
Hanover 20007
Reich 20006
##olate 20005
Unity 20004
Pike 20003
collectively 20002
Theme 20001
ballad 20000
kindergarten 19999
rocked 19998
zoo 19997
##page 19996
whip 19995
Rodríguez 19994
strokes 19993
checks 19992
Becky 19991
Stern 19990
upstream 19989
##uta 19988
Silent 19987
volunteered 19986
Sigma 19985
##ingen 19984
##tract 19983
##ede 19982
Gujarat 19981
screwed 19980
entertaining 19979
##action 19978
##ryn 19977
defenders 19976
innocence 19975
lesbian 19974
que 19973
Richie 19972
nodes 19971
Lie 19970
juvenile 19969
Jakarta 19968
safer 19967
confront 19966
Bert 19965
breakthrough 19964
gospel 19963
Cable 19962
##zie 19961
institutional 19960
Archive 19959
brake 19958
liquor 19957
feeds 19956
##iate 19955
chancellor 19954
Encyclopedia 19953
Animation 19952
scanning 19951
teens 19950
##mother 19949
Core 19948
Rear 19947
Wine 19946
##flower 19945
reactor 19944
Ave 19943
cardinal 19942
sodium 19941
strands 19940
Olivier 19939
crouched 19938
Vaughan 19937
Sammy 19936
Image 19935
scars 19934
Emmanuel 19933
flour 19932
bias 19931
nipple 19930
revelation 19929
##ucci 19928
Denny 19927
##ssy 19926
Form 19925
Runners 19924
admits 19923
Rama 19922
violated 19921
Burmese 19920
feud 19919
underwear 19918
Mohamed 19917
Named 19916
swift 19915
statewide 19914
Door 19913
Recently 19912
comparing 19911
Hundred 19910
##idge 19909
##nity 19908
##rds 19907
Rally 19906
Reginald 19905
Auburn 19904
solving 19903
waitress 19902
Treasurer 19901
##ilization 19900
Halloween 19899
Ministers 19898
Boss 19897
Shut 19896
##listic 19895
Rahman 19894
demonstrating 19893
##pies 19892
Gaza 19891
Yuri 19890
installations 19889
Math 19888
schooling 19887
##bble 19886
Bronx 19885
exiled 19884
gasoline 19883
133 19882
bundle 19881
humid 19880
FCC 19879
proportional 19878
relate 19877
VFL 19876
##dez 19875
continuity 19874
##cene 19873
syndicated 19872
atmospheric 19871
arrows 19870
Wanderers 19869
reinforcements 19868
Willow 19867
Lexington 19866
Rotten 19865
##yon 19864
discovering 19863
Serena 19862
portable 19861
##lysis 19860
targeting 19859
£1 19858
Goodman 19857
Steam 19856
sensors 19855
detachment 19854
Malik 19853
##erie 19852
attitudes 19851
Goes 19850
Kendall 19849
Read 19848
Sleep 19847
beans 19846
Nikki 19845
modification 19844
Jeanne 19843
knuckles 19842
Eleven 19841
##iously 19840
Gross 19839
Jaime 19838
dioxide 19837
moisture 19836
Stones 19835
UCI 19834
displacement 19833
Metacritic 19832
Jury 19831
lace 19830
rendering 19829
elephant 19828
Sergei 19827
##quire 19826
GP 19825
Abbott 19824
##type 19823
projection 19822
Mouse 19821
Bishops 19820
whispering 19819
Kathleen 19818
Rams 19817
##jar 19816
whites 19815
##oran 19814
assess 19813
dispatched 19812
##hire 19811
kin 19810
##mir 19809
Nursing 19808
advocates 19807
tremendous 19806
sweater 19805
assisting 19804
##bil 19803
Farmer 19802
prominently 19801
reddish 19800
Hague 19799
cyclone 19798
##SD 19797
Sage 19796
Lawson 19795
Sanctuary 19794
discharged 19793
retains 19792
##ube 19791
shotgun 19790
wilderness 19789
Reformed 19788
similarity 19787
Entry 19786
Watts 19785
Bahá 19784
Quest 19783
Looks 19782
visions 19781
Reservoir 19780
Arabs 19779
curls 19778
Blu 19777
dripping 19776
accomplish 19775
Verlag 19774
drill 19773
sensor 19772
Dillon 19771
physicians 19770
smashed 19769
##dir 19768
painters 19767
Renault 19766
straw 19765
fading 19764
Directorate 19763
lounge 19762
commissions 19761
Brain 19760
##graph 19759
neo 19758
##urg 19757
plug 19756
coordinated 19755
##houses 19754
Critical 19753
lamps 19752
illustrator 19751
Returning 19750
erosion 19749
Crow 19748
##ciation 19747
blessing 19746
Thought 19745
Wife 19744
medalist 19743
synthesizer 19742
Pam 19741
Thornton 19740
Esther 19739
HBO 19738
fond 19737
Associates 19736
##raz 19735
pirate 19734
permits 19733
Wide 19732
tire 19731
##PC 19730
Ernie 19729
Nassau 19728
transferring 19727
RFC 19726
##ntly 19725
um 19724
spit 19723
AS 19722
##mps 19721
Mining 19720
polar 19719
villa 19718
anchored 19717
##zzi 19716
embarrassment 19715
relates 19714
##ă 19713
Rupert 19712
counterparts 19711
131 19710
Baxter 19709
##18 19708
Igor 19707
recognizes 19706
Clive 19705
##hane 19704
##eries 19703
##ibly 19702
occurrence 19701
##scope 19700
fin 19699
colorful 19698
Rapids 19697
banker 19696
tile 19695
##rative 19694
##dus 19693
delays 19692
destinations 19691
##llis 19690
Pond 19689
Dane 19688
grandparents 19687
rewarded 19686
socially 19685
motorway 19684
##hof 19683
##lying 19682
##human 19681
modeled 19680
Dayton 19679
Forward 19678
conscience 19677
Sharma 19676
whistle 19675
Mayer 19674
Sasha 19673
##pical 19672
circuits 19671
Zhou 19670
##ça 19669
Latvian 19668
finalists 19667
predators 19666
Lafayette 19665
closes 19664
obligations 19663
Resolution 19662
##vier 19661
Trustees 19660
reminiscent 19659
##hos 19658
Highlands 19657
Protected 19656
asylum 19655
evacuation 19654
##acy 19653
Chevrolet 19652
confession 19651
Somalia 19650
emergence 19649
separating 19648
##rica 19647
alright 19646
calcium 19645
Laurent 19644
Welfare 19643
Leonardo 19642
ashes 19641
dental 19640
Deal 19639
minerals 19638
##lump 19637
##mount 19636
accounted 19635
staggered 19634
slogan 19633
photographic 19632
builder 19631
##imes 19630
##raft 19629
tragic 19628
144 19627
SEC 19626
Hit 19625
tailed 19624
[...]
